<unk>	0
<s>	0
</s>	0
,	-3.08344
▁"	-3.1424
":	-3.53662
s	-4.06229
▁the	-4.14129
"	-4.19534
chinese	-4.2286
english	-4.22875
▁{	-4.22881
"}	-4.22885
的	-4.25233
。	-4.29068
."	-4.33709
▁	-4.49211
▁of	-4.64205
▁and	-4.80731
▁to	-4.98568
▁a	-5.09193
▁in	-5.10954
-	-5.38505
ing	-5.52909
▁is	-5.56191
在	-5.5843
ed	-5.71829
和	-5.75224
.	-5.81995
了	-5.93055
d	-5.96945
'	-5.97348
是	-5.99494
、	-6.00019
▁for	-6.00204
The	-6.04796
▁that	-6.06986
▁with	-6.23082
▁on	-6.23187
:	-6.33229
中	-6.35487
t	-6.37192
ly	-6.38169
▁be	-6.38301
▁are	-6.45116
对	-6.45464
有	-6.47728
er	-6.49556
▁as	-6.52039
▁it	-6.56441
我	-6.57095
▁was	-6.57732
上	-6.58079
人	-6.60293
▁you	-6.6043
不	-6.60559
)	-6.61026
y	-6.6192
▁by	-6.65422
al	-6.68173
▁I	-6.70068
为	-6.71892
e	-6.76557
一	-6.7695
他	-6.79662
A	-6.80445
(	-6.81523
▁have	-6.82854
▁from	-6.8332
▁can	-6.85838
n	-6.87113
与	-6.8738
▁an	-6.88622
I	-6.89367
▁this	-6.90204
大	-6.91355
▁at	-6.9369
地	-6.93973
▁or	-6.95436
性	-6.96403
你	-6.99478
▁has	-6.99527
会	-6.99899
我们	-7.02116
到	-7.03786
▁not	-7.0493
▁\"	-7.06526
re	-7.06591
▁re	-7.09789
es	-7.10433
or	-7.10769
这	-7.11166
时	-7.11264
m	-7.118
in	-7.11985
用	-7.12792
年	-7.13104
说	-7.13278
将	-7.1401
r	-7.14812
▁will	-7.15299
一个	-7.16622
▁he	-7.16732
i	-7.16756
“	-7.17196
S	-7.17623
;	-7.17656
”	-7.18642
而	-7.20645
以	-7.2318
来	-7.2322
o	-7.26088
In	-7.2814
▁his	-7.2845
▁we	-7.29158
▁(	-7.29165
u	-7.30115
P	-7.30574
从	-7.31815
于	-7.32205
高	-7.327
an	-7.32737
th	-7.33241
▁were	-7.33852
他们	-7.34401
▁one	-7.34467
▁which	-7.35211
▁but	-7.3534
多	-7.3551
ation	-7.36009
被	-7.37122
并	-7.37247
子	-7.37419
出	-7.37986
水	-7.38031
就	-7.38485
▁all	-7.39415
法	-7.39706
▁A	-7.40215
T	-7.40544
▁S	-7.42088
后	-7.42452
可	-7.42608
\"	-7.42633
▁more	-7.42792
le	-7.43759
?	-7.44536
▁their	-7.45227
所	-7.45977
要	-7.46309
下	-7.46509
B	-7.47315
都	-7.47833
▁your	-7.48908
a	-7.49769
里	-7.50033
体	-7.50127
能	-7.50376
也	-7.50894
化	-7.51141
F	-7.51156
▁so	-7.51548
着	-7.5166
可以	-7.51748
C	-7.51819
▁they	-7.52329
ic	-7.52354
ar	-7.5302
▁out	-7.54321
斯	-7.56115
g	-7.56122
b	-7.56137
▁up	-7.56994
ri	-7.57696
小	-7.58253
及	-7.58853
▁also	-7.59926
但	-7.60853
过	-7.61805
2	-7.62724
▁said	-7.6309
en	-7.63374
或	-7.64588
▁its	-7.6542
分	-7.6641
等	-7.66619
前	-7.66659
G	-7.66703
▁time	-7.66896
L	-7.67112
D	-7.67129
l	-7.67223
好	-7.67337
p	-7.6734
本	-7.67817
1	-7.67965
▁de	-7.6816
研究	-7.68579
ity	-7.69049
其	-7.6918
ers	-7.69225
▁me	-7.69321
▁C	-7.69385
者	-7.69829
This	-7.69853
ur	-7.69859
向	-7.70363
▁new	-7.70456
▁been	-7.70572
▁about	-7.70823
尔	-7.71056
It	-7.71278
▁had	-7.71554
c	-7.7215
内	-7.72301
她	-7.72543
H	-7.72706
力	-7.73049
进行	-7.74224
它	-7.744
外	-7.74583
il	-7.75741
▁into	-7.75748
天	-7.76087
机	-7.76873
▁do	-7.77526
▁my	-7.77587
把	-7.77911
生	-7.77975
’	-7.7806
之	-7.78148
▁P	-7.78748
家	-7.78906
▁who	-7.79017
点	-7.79099
长	-7.79277
心	-7.79691
▁than	-7.79825
▁people	-7.80121
▁some	-7.80512
去	-7.80574
方法	-7.80662
▁system	-7.80716
N	-7.80791
当	-7.80923
日	-7.81312
度	-7.8134
?"	-7.81484
面	-7.81603
学	-7.8163
名	-7.81694
us	-7.81756
使用	-7.8231
那	-7.82333
无	-7.82338
新	-7.82598
M	-7.82716
电	-7.82757
这些	-7.83295
发	-7.83378
el	-7.83754
▁other	-7.8429
▁no	-7.84302
行	-7.84444
中国	-7.84844
▁B	-7.8512
得	-7.85178
▁when	-7.85583
▁her	-7.85585
3	-7.85599
on	-7.87077
还	-7.87586
ive	-7.87976
这个	-7.88033
ve	-7.88048
该	-7.88501
器	-7.88725
▁un	-7.888
更	-7.89161
st	-7.8937
▁like	-7.89873
最	-7.90261
E	-7.90358
at	-7.90661
ment	-7.90712
id	-7.91026
▁two	-7.91054
ion	-7.91066
拉	-7.91314
系统	-7.91601
很	-7.91623
手	-7.9188
没有	-7.92706
克	-7.93402
个	-7.93812
ll	-7.94026
量	-7.94078
!	-7.94336
成	-7.94863
it	-7.94895
▁over	-7.95794
特	-7.95979
ter	-7.96057
▁there	-7.96506
比	-7.96839
主	-7.97187
et	-7.98608
O	-7.98664
▁high	-7.98864
ra	-7.99095
▁T	-7.99794
光	-7.99873
ate	-8.00165
通过	-8.00287
自	-8.00291
使	-8.00349
线	-8.0042
de	-8.00638
▁would	-8.00666
公司	-8.00673
▁p	-8.00905
做	-8.01371
给	-8.01418
R	-8.01458
▁our	-8.0229
利	-8.02701
▁China	-8.02909
物	-8.03042
加	-8.0333
头	-8.03465
▁first	-8.04581
▁con	-8.04597
流	-8.04656
f	-8.04926
动	-8.05089
气	-8.05255
▁only	-8.05585
起	-8.05588
able	-8.05905
h	-8.05987
技术	-8.06038
se	-8.06599
la	-8.06783
▁paper	-8.07102
开	-8.07292
已经	-8.07476
想	-8.07529
▁them	-8.0767
美国	-8.07769
ry	-8.07779
分析	-8.07814
ent	-8.08237
问题	-8.08494
▁F	-8.08697
重	-8.08712
▁G	-8.08942
但是	-8.09024
工作	-8.09242
k	-8.09383
需要	-8.10039
w	-8.1017
ro	-8.10354
一些	-8.10985
两	-8.11109
海	-8.11207
▁The	-8.11247
月	-8.11296
age	-8.11316
V	-8.11743
▁used	-8.11853
li	-8.12008
▁after	-8.12025
国	-8.12265
定	-8.12551
5	-8.12614
He	-8.12768
▁method	-8.12916
道	-8.13001
德	-8.13234
车	-8.13814
▁if	-8.13996
▁what	-8.1431
部	-8.14474
▁should	-8.15487
4	-8.16112
场	-8.1622
We	-8.16336
▁she	-8.16768
位	-8.17131
▁most	-8.17289
热	-8.17599
▁could	-8.18412
以及	-8.18515
三	-8.19387
因为	-8.19407
ol	-8.19948
方	-8.20105
数	-8.20282
▁H	-8.20457
▁good	-8.20721
入	-8.21133
me	-8.21372
ch	-8.21664
相	-8.21817
co	-8.2198
ang	-8.2213
▁make	-8.22419
▁use	-8.22851
制	-8.23091
作	-8.23325
美	-8.23357
▁work	-8.23564
7	-8.23624
型	-8.23729
▁E	-8.23845
to	-8.2395
▁just	-8.24093
ine	-8.24415
如果	-8.24611
带	-8.24676
看	-8.24806
同	-8.24937
ma	-8.25067
W	-8.25351
te	-8.25424
率	-8.25534
设计	-8.25627
期	-8.26259
z	-8.26573
am	-8.26659
um	-8.26966
马	-8.27094
▁years	-8.27334
》	-8.27444
《	-8.2799
中的	-8.28145
▁water	-8.28657
▁-	-8.2869
区	-8.28793
▁may	-8.28919
式	-8.28939
▁such	-8.28964
▁very	-8.29194
路	-8.29259
▁many	-8.29857
·	-8.30065
已	-8.30188
层	-8.30266
西	-8.30429
ia	-8.30585
6	-8.306
But	-8.30719
由	-8.30816
图	-8.31011
格	-8.31309
/	-8.31539
▁D	-8.31679
▁between	-8.31717
▁well	-8.31729
K	-8.31732
9	-8.31734
正	-8.31791
ary	-8.31874
ness	-8.3203
此	-8.32069
进	-8.32562
本文	-8.32796
可能	-8.32814
▁M	-8.32874
具有	-8.32894
x	-8.3305
ce	-8.33217
金	-8.334
他的	-8.33515
is	-8.33534
▁world	-8.33547
让	-8.33799
ge	-8.34159
经济	-8.34319
这种	-8.34755
▁get	-8.34756
lo	-8.34958
ad	-8.35105
时间	-8.3518
ul	-8.35329
合	-8.35332
单	-8.35365
▁U	-8.35546
现在	-8.35606
▁how	-8.35617
像	-8.3571
国家	-8.35769
事	-8.35898
自己	-8.36106
提供	-8.36174
ant	-8.36479
类	-8.36602
应	-8.3672
非	-8.36808
▁life	-8.37136
U	-8.3719
ne	-8.37253
▁dis	-8.37297
sh	-8.37594
▁under	-8.37626
花	-8.37793
ated	-8.38243
山	-8.38334
口	-8.38441
mo	-8.38597
▁st	-8.38654
低	-8.38671
▁study	-8.38851
爱	-8.38977
ist	-8.39069
ci	-8.39166
变	-8.39296
▁different	-8.39376
▁development	-8.39732
理	-8.39823
周	-8.39889
▁co	-8.40406
文	-8.40584
ke	-8.40727
▁e	-8.40811
If	-8.40811
开始	-8.41107
▁these	-8.41389
▁through	-8.41391
病	-8.41538
as	-8.41803
▁part	-8.41862
种	-8.41971
受	-8.42371
▁him	-8.4238
又	-8.42413
ck	-8.42534
▁Chinese	-8.42702
▁ex	-8.42738
im	-8.42832
▁any	-8.42908
打	-8.4318
油	-8.43548
8	-8.43607
ian	-8.43805
布	-8.43944
作为	-8.44415
意	-8.44628
est	-8.44664
情	-8.44705
发现	-8.44953
们	-8.4545
ir	-8.45552
▁long	-8.45718
书	-8.45779
结构	-8.45815
▁back	-8.45843
ous	-8.46068
▁because	-8.4611
全	-8.46226
▁go	-8.46239
卡	-8.46248
▁see	-8.46854
解	-8.46941
的人	-8.46968
控制	-8.4716
▁"\"	-8.47298
man	-8.47483
▁year	-8.47663
色	-8.47688
安	-8.47693
间	-8.47716
如	-8.47765
——	-8.47832
▁pre	-8.48088
▁1	-8.48181
▁design	-8.48217
达	-8.48232
主要	-8.48237
门	-8.48241
风	-8.48253
▁now	-8.48665
就是	-8.48774
波	-8.48811
▁control	-8.48953
▁even	-8.49035
▁b	-8.49132
And	-8.49152
▁"“	-8.49167
回	-8.49217
▁sp	-8.4943
放	-8.49496
vi	-8.49527
球	-8.4954
处	-8.49742
▁To	-8.49917
▁then	-8.50039
采用	-8.50052
一种	-8.50094
ance	-8.50234
明	-8.50276
ling	-8.50705
次	-8.50733
老	-8.50737
▁O	-8.50791
语	-8.50882
▁man	-8.50963
二	-8.51047
▁know	-8.51398
市	-8.51508
走	-8.51516
管	-8.51756
亚	-8.51804
▁process	-8.51898
管理	-8.51916
na	-8.51947
ies	-8.52078
原	-8.5211
见	-8.52232
南	-8.52298
信	-8.5245
质	-8.52735
目的	-8.52964
ted	-8.5297
▁pro	-8.53148
▁made	-8.53254
up	-8.53399
▁help	-8.53517
形	-8.53736
你的	-8.5388
平	-8.54009
组	-8.54162
节	-8.543
基	-8.54436
只	-8.54463
un	-8.54829
尼	-8.55552
科	-8.55658
发展	-8.55684
片	-8.55905
产品	-8.5602
包括	-8.56024
;"	-8.56214
成为	-8.56285
其他	-8.56353
权	-8.56419
▁2	-8.56633
▁model	-8.5667
再	-8.56932
▁data	-8.57004
称	-8.57286
▁end	-8.57298
ta	-8.57326
结果	-8.5759
应用	-8.57955
级	-8.58105
▁W	-8.58234
▁down	-8.58368
▁three	-8.58659
To	-8.58883
较	-8.58926
四	-8.59383
▁us	-8.59492
▁K	-8.59636
世界	-8.59742
实	-8.60024
政府	-8.601
微	-8.60155
极	-8.60187
边	-8.60242
处理	-8.60273
▁N	-8.60313
总	-8.6034
19	-8.60547
身	-8.60697
▁using	-8.60857
ating	-8.60872
ty	-8.60908
生产	-8.6128
▁need	-8.61356
J	-8.61372
服务	-8.61719
不同	-8.61756
东	-8.6204
认为	-8.62104
▁day	-8.62374
火	-8.62601
我的	-8.62603
You	-8.62688
市场	-8.6273
发生	-8.628
人们	-8.62884
所有	-8.62933
ting	-8.62976
公	-8.63264
什么	-8.63495
转	-8.63531
▁right	-8.63547
▁market	-8.63672
强	-8.63859
ence	-8.64021
tic	-8.64031
▁way	-8.64076
per	-8.64146
各	-8.64326
选	-8.64758
社会	-8.64759
pe	-8.65046
▁Re	-8.65085
▁V	-8.65095
信息	-8.65127
空	-8.65223
数据	-8.65455
白	-8.65486
影响	-8.65655
▁f	-8.65733
▁want	-8.65972
指	-8.66038
报	-8.66161
利用	-8.66261
巴	-8.66306
▁much	-8.66315
星	-8.66375
感	-8.66423
and	-8.66448
部分	-8.66717
表	-8.6672
州	-8.66826
对于	-8.67008
▁mo	-8.6704
或者	-8.67116
石	-8.67287
▁car	-8.67376
▁research	-8.67435
ill	-8.6745
ite	-8.6749
模型	-8.67515
▁take	-8.67585
五	-8.67917
深	-8.68493
板	-8.68524
▁before	-8.68528
▁3	-8.68555
▁where	-8.68692
be	-8.68744
op	-8.68817
组织	-8.68835
▁L	-8.69194
▁test	-8.69238
▁di	-8.69325
罗	-8.69466
!"	-8.69658
存在	-8.69853
▁per	-8.69947
例	-8.70046
▁la	-8.70168
ial	-8.70231
▁R	-8.70263
非常	-8.70278
:“	-8.70299
约	-8.704
企业	-8.70437
几	-8.70562
能够	-8.7074
For	-8.70802
ut	-8.71059
As	-8.71189
There	-8.71247
立	-8.7133
干	-8.71346
导	-8.71404
When	-8.71745
剂	-8.71802
▁set	-8.71809
▁each	-8.71921
▁off	-8.72039
▁last	-8.7208
细胞	-8.72094
X	-8.72134
作用	-8.72143
它们	-8.72237
治疗	-8.72424
the	-8.72479
您	-8.72484
酸	-8.72491
▁found	-8.72524
品	-8.72711
10	-8.72716
任何	-8.72864
。”	-8.7303
民	-8.73088
员	-8.73175
米	-8.73297
mi	-8.73315
▁effect	-8.73327
0	-8.73416
▁still	-8.73438
▁19	-8.73557
ization	-8.73558
▁same	-8.73611
less	-8.7363
写	-8.73687
近	-8.73723
收	-8.73796
太	-8.73807
压	-8.73838
选择	-8.73949
▁those	-8.73958
min	-8.74061
▁says	-8.74071
件	-8.742
ot	-8.74204
▁don	-8.74669
▁non	-8.75033
mp	-8.75185
教	-8.7525
交	-8.7535
▁ma	-8.75358
那些	-8.75371
至	-8.75679
装	-8.75789
真	-8.75945
▁home	-8.7603
因	-8.76093
▁sub	-8.76157
ten	-8.762
条	-8.76266
业	-8.76322
血	-8.76398
抗	-8.76451
表示	-8.76481
却	-8.76528
必须	-8.76543
▁Ma	-8.76561
十	-8.7674
20	-8.76835
▁results	-8.77201
ism	-8.77417
▁think	-8.77495
网	-8.77513
儿	-8.77526
台	-8.78013
▁find	-8.78223
▁great	-8.78259
ide	-8.78316
这是	-8.78477
Objective	-8.78505
提高	-8.78514
▁c	-8.78627
素	-8.78796
则	-8.78871
声	-8.79029
实现	-8.79033
ha	-8.79113
双	-8.79182
ip	-8.79279
同时	-8.79296
林	-8.79383
许多	-8.79384
▁being	-8.79438
▁power	-8.79491
商	-8.79504
ong	-8.7956
调	-8.79615
▁form	-8.79628
▁must	-8.79726
代	-8.79904
▁place	-8.80029
阿	-8.8014
经	-8.80216
▁put	-8.80474
环境	-8.8049
上的	-8.80654
功能	-8.80676
ag	-8.80866
So	-8.80869
▁both	-8.80956
di	-8.81009
▁en	-8.81064
工	-8.81311
值	-8.81385
▁number	-8.81552
维	-8.81605
地区	-8.81663
的时候	-8.81743
兰	-8.81792
视	-8.8185
he	-8.81964
字	-8.82119
▁every	-8.82276
精	-8.82495
这一	-8.82895
理论	-8.83076
▁show	-8.83197
别	-8.83356
反	-8.83525
rs	-8.83525
温	-8.83569
ized	-8.83589
药	-8.83831
und	-8.83931
tra	-8.84017
▁love	-8.84345
传	-8.844
▁li	-8.84403
▁t	-8.84491
师	-8.84493
源	-8.84577
每	-8.8467
所以	-8.84688
▁based	-8.84701
由于	-8.84826
如何	-8.84879
纳	-8.84882
自己的	-8.85002
军	-8.85295
▁Co	-8.85363
生活	-8.85376
然后	-8.85388
而且	-8.85471
▁sc	-8.85595
样	-8.85664
▁own	-8.85675
集	-8.8573
便	-8.85741
未	-8.85746
▁comp	-8.85888
▁structure	-8.86061
▁company	-8.86173
▁ra	-8.86191
con	-8.86199
les	-8.8625
观	-8.86268
因此	-8.86316
吗	-8.86361
队	-8.86501
They	-8.86706
进行了	-8.86775
▁value	-8.86996
▁order	-8.87041
的影响	-8.87189
▁ca	-8.87293
▁become	-8.87299
学生	-8.87348
▁am	-8.87504
ap	-8.87665
▁business	-8.87787
ish	-8.87921
line	-8.88046
取	-8.88098
女	-8.88281
▁small	-8.88283
新的	-8.88334
)."	-8.88457
ful	-8.88544
大学	-8.88673
战	-8.88684
mb	-8.88847
ction	-8.88901
结	-8.88945
少	-8.89043
并且	-8.89071
是一个	-8.89125
住	-8.89169
关系	-8.89202
▁during	-8.89232
ts	-8.89438
不能	-8.89486
▁while	-8.896
ca	-8.89604
方面	-8.89631
清	-8.89668
son	-8.89775
万	-8.89785
▁low	-8.8983
神	-8.8991
产生	-8.90022
应该	-8.90082
▁state	-8.90102
局	-8.90147
ni	-8.90215
两个	-8.90215
sion	-8.90231
ning	-8.90348
▁information	-8.90701
ally	-8.90742
▁w	-8.90937
没	-8.90947
▁important	-8.90984
出现	-8.91009
皮	-8.91112
▁In	-8.9115
要求	-8.91227
一样	-8.91309
远	-8.91398
▁application	-8.91441
▁technology	-8.9167
安全	-8.91711
显示	-8.91778
希望	-8.91833
开发	-8.92042
北	-8.92158
为了	-8.92283
▁J	-8.92429
ard	-8.92444
▁old	-8.92642
▁light	-8.92714
之一	-8.92753
士	-8.92755
...	-8.92758
▁human	-8.92956
▁“	-8.92973
通	-8.93046
▁bo	-8.93115
▁government	-8.93333
▁He	-8.93596
der	-8.93601
死	-8.93791
产	-8.93824
▁main	-8.93842
常	-8.93941
失	-8.93944
华	-8.93983
话	-8.94016
od	-8.94213
tro	-8.94281
tor	-8.94309
—	-8.94339
快	-8.94592
网络	-8.94605
▁large	-8.94678
go	-8.94802
文化	-8.94839
项目	-8.94922
相关	-8.94928
这样	-8.94967
▁group	-8.94969
▁look	-8.95206
眼	-8.95221
切	-8.95266
tion	-8.95304
夫	-8.95346
▁rate	-8.95354
不会	-8.95359
ho	-8.95361
红	-8.95391
▁support	-8.95415
ow	-8.95439
论	-8.95479
活动	-8.95563
落	-8.9575
▁analysis	-8.95915
os	-8.96031
首	-8.96089
听	-8.96187
),	-8.96193
bo	-8.96421
om	-8.96448
看到	-8.96464
red	-8.96567
其中	-8.96571
才	-8.96588
人的	-8.9661
Y	-8.96624
元	-8.96651
▁too	-8.96804
▁hand	-8.96872
支持	-8.96916
▁say	-8.9699
▁country	-8.97203
▁around	-8.97227
价	-8.97295
得到	-8.97298
离	-8.97303
提	-8.97401
先	-8.9752
▁Z	-8.97574
知道	-8.9759
号	-8.97813
▁quality	-8.97947
防	-8.98014
▁Li	-8.98039
目前	-8.98078
吃	-8.98247
ton	-8.98259
正在	-8.98308
根据	-8.98324
运	-8.98334
gen	-8.98356
还是	-8.98359
▁school	-8.98436
包	-8.98722
请	-8.98797
计划	-8.98819
过程	-8.98888
▁come	-8.98965
能力	-8.98992
ea	-8.99276
预	-8.99308
ac	-8.99357
聚	-8.99525
▁air	-8.9953
▁vi	-8.99743
都是	-8.99795
画	-8.99858
接	-8.99948
%	-9.00097
问	-9.00304
基于	-9.0031
除	-9.00379
列	-9.00404
国际	-9.00464
▁5	-9.00621
早	-9.00639
▁head	-9.00681
配	-9.00718
教育	-9.0077
排	-9.00932
半	-9.00947
▁field	-9.0101
.\""	-9.01088
▁ad	-9.01229
赛	-9.01245
▁little	-9.01336
城市	-9.01367
支	-9.01509
增加	-9.01569
000	-9.01877
hi	-9.01893
最后	-9.01953
情况	-9.02015
▁po	-9.02196
▁point	-9.02243
no	-9.02263
ster	-9.02267
中心	-9.02422
▁real	-9.02493
知	-9.02497
ud	-9.02545
▁inter	-9.02651
▁example	-9.02652
端	-9.03103
po	-9.0332
oc	-9.03342
ding	-9.03389
料	-9.03482
▁4	-9.03559
词	-9.03642
骨	-9.03668
王	-9.03687
复	-9.03768
▁fl	-9.03783
古	-9.03843
▁area	-9.03863
他们的	-9.04011
ual	-9.04063
At	-9.04203
钱	-9.04273
那么	-9.0436
音	-9.04466
活	-9.04759
树	-9.04806
fi	-9.04961
ru	-9.05079
▁cr	-9.05103
ium	-9.05117
ie	-9.05147
pl	-9.05297
计算	-9.05344
核	-9.05368
难	-9.05414
▁present	-9.05477
ver	-9.05479
mon	-9.0559
▁best	-9.05612
lic	-9.05647
乐	-9.05747
▁better	-9.05759
之后	-9.0591
很多	-9.06079
▁here	-9.06186
河	-9.06342
mer	-9.06527
With	-9.06532
ring	-9.0654
我们的	-9.06781
超	-9.06807
▁anti	-9.06839
▁change	-9.06842
”。	-9.06951
液	-9.07124
▁name	-9.07262
em	-9.07335
▁It	-9.07346
ther	-9.07435
▁Ro	-9.07521
用于	-9.07526
ical	-9.07629
▁did	-9.0766
底	-9.07866
帮助	-9.07973
木	-9.08157
che	-9.08165
ti	-9.08278
ure	-9.08395
奥	-9.0848
▁result	-9.08489
性能	-9.08528
你们	-9.08827
演	-9.09059
▁few	-9.09145
nd	-9.09165
越	-9.09285
城	-9.09295
▁without	-9.09296
即	-9.09567
hu	-9.09621
va	-9.09624
获得	-9.09702
tin	-9.09754
第一	-9.09772
修	-9.09825
▁kind	-9.09897
▁second	-9.10255
张	-9.10312
密	-9.1046
we	-9.10483
直	-9.10498
end	-9.10613
一次	-9.10627
ph	-9.10671
land	-9.10899
第	-9.10936
mit	-9.10941
▁gra	-9.10992
ors	-9.11021
ex	-9.11129
普	-9.11207
短	-9.11255
群	-9.11262
联	-9.11285
言	-9.11347
da	-9.11388
ee	-9.11432
ct	-9.11543
▁special	-9.1159
v	-9.11724
优	-9.11854
标	-9.11873
▁problem	-9.11891
实验	-9.1191
文件	-9.1196
▁'	-9.12002
▁class	-9.12009
百	-9.12077
用户	-9.12151
土	-9.12233
▁start	-9.12322
act	-9.12359
Re	-9.12837
喜欢	-9.12883
▁city	-9.12987
ative	-9.13023
com	-9.13033
▁always	-9.13196
共	-9.13289
比较	-9.13352
质量	-9.13404
nt	-9.13479
客	-9.13517
矿	-9.1363
简	-9.13743
哈	-9.13884
黄	-9.13948
▁four	-9.13949
What	-9.1396
雷	-9.13979
黑	-9.14007
照	-9.14147
运动	-9.14163
服	-9.14249
一直	-9.14291
▁hard	-9.14293
▁law	-9.14407
往	-9.14454
)。	-9.14525
tain	-9.14579
ens	-9.14722
奇	-9.14938
▁lo	-9.14956
▁side	-9.14966
▁percent	-9.14993
还有	-9.15014
生物	-9.15048
ig	-9.15072
容	-9.15483
效果	-9.15902
有关	-9.15935
历史	-9.15938
省	-9.15969
ize	-9.15981
ner	-9.15984
▁dr	-9.16137
材料	-9.16193
▁another	-9.1643
▁key	-9.16434
建立	-9.16586
草	-9.16602
▁called	-9.16775
▁against	-9.16872
She	-9.16879
one	-9.17105
▁food	-9.1712
关	-9.17174
▁ho	-9.17209
▁service	-9.17228
示	-9.17257
建	-9.17305
ep	-9.17311
▁Mo	-9.17314
ology	-9.17326
▁treatment	-9.17359
载	-9.17386
▁lot	-9.17448
▁De	-9.17461
测试	-9.17479
轮	-9.17565
▁team	-9.17641
▁10	-9.17661
▁children	-9.17708
ward	-9.17716
pro	-9.17725
do	-9.17739
标准	-9.17851
ice	-9.1787
价值	-9.17964
形成	-9.17993
▁oil	-9.18052
介绍了	-9.18139
ations	-9.18252
重要	-9.18283
▁men	-9.18284
试验	-9.18298
▁content	-9.18368
一定	-9.18494
根	-9.18598
果	-9.18607
股	-9.18628
第二	-9.18661
行为	-9.18727
起来	-9.18769
增	-9.18801
基础	-9.18814
学习	-9.18821
ub	-9.18845
▁body	-9.18873
▁free	-9.18876
沙	-9.18998
也是	-9.1901
led	-9.19033
▁next	-9.19038
站	-9.19104
主义	-9.19176
▁since	-9.19233
That	-9.19314
步	-9.19443
▁might	-9.19449
膜	-9.19461
设备	-9.19569
保护	-9.19579
▁level	-9.19604
que	-9.19617
连	-9.19747
著	-9.19817
酒	-9.19822
孩子	-9.19851
工程	-9.19881
任	-9.20051
模式	-9.20231
▁ro	-9.20273
ab	-9.20347
▁face	-9.20371
造	-9.20397
▁art	-9.20535
▁cost	-9.20596
▁play	-9.2061
船	-9.20635
呢	-9.20672
▁report	-9.20778
▁management	-9.2078
▁public	-9.20847
▁ba	-9.20886
六	-9.20967
叶	-9.20982
▁call	-9.21049
▁production	-9.2107
way	-9.21078
tal	-9.21143
old	-9.21165
▁experience	-9.21191
ft	-9.21193
成功	-9.21204
异	-9.21278
结论	-9.21298
▁bi	-9.21308
▁never	-9.21342
▁multi	-9.21401
存	-9.21402
gu	-9.21425
均	-9.21475
曾	-9.21478
▁often	-9.21537
证	-9.2154
▁going	-9.21571
射	-9.21968
▁article	-9.22069
ast	-9.22086
▁g	-9.22116
▁sa	-9.22125
ld	-9.22236
ff	-9.22251
室	-9.22307
▁keep	-9.22332
来自	-9.22334
引	-9.2234
是否	-9.22348
▁short	-9.22394
提出	-9.22484
反应	-9.22487
英国	-9.22505
角	-9.22545
患者	-9.22567
谈	-9.22584
50	-9.226
▁type	-9.22698
▁students	-9.22848
▁products	-9.22881
因素	-9.23102
▁Mr	-9.23172
xi	-9.23256
▁provide	-9.23256
随	-9.23316
味	-9.23406
▁performance	-9.23578
方式	-9.23688
款	-9.23693
来说	-9.23703
▁gr	-9.2388
After	-9.23915
世	-9.23946
▁function	-9.23969
▁war	-9.2402
▁operation	-9.24048
On	-9.2407
▁give	-9.24133
▁patients	-9.24151
保	-9.24185
▁network	-9.24302
dy	-9.24332
▁heart	-9.24352
▁New	-9.24424
具	-9.24427
ng	-9.24506
out	-9.24525
▁does	-9.2471
side	-9.24733
▁self	-9.24744
跟	-9.24754
整	-9.24761
30	-9.24764
托	-9.24788
福	-9.24797
lt	-9.24953
ger	-9.24985
▁view	-9.25191
解决	-9.25222
现	-9.25455
king	-9.25459
ak	-9.25471
只有	-9.25533
广	-9.25539
▁including	-9.25648
sis	-9.25673
据	-9.2574
内容	-9.25783
人员	-9.25857
▁line	-9.25943
塔	-9.25959
击	-9.26009
粉	-9.26015
鱼	-9.26024
计	-9.26146
调查	-9.26151
职	-9.26156
▁big	-9.26169
查	-9.2618
注	-9.26182
▁$	-9.2619
▁k	-9.26273
空间	-9.26417
▁theory	-9.2643
到了	-9.26487
▁offer	-9.26506
买	-9.26657
▁things	-9.2669
象	-9.26768
食	-9.26889
▁less	-9.26912
差	-9.26939
推	-9.26984
的是	-9.27042
房	-9.27044
12	-9.27077
One	-9.27079
朋友	-9.27182
铁	-9.27186
▁thought	-9.2721
our	-9.27222
▁strong	-9.27238
关于	-9.27246
资源	-9.27334
▁really	-9.2769
bu	-9.27789
只是	-9.27797
吧	-9.2789
专	-9.27917
银行	-9.28055
60	-9.28253
ack	-9.28273
的一个	-9.28302
▁person	-9.28317
不过	-9.28322
试	-9.28398
▁post	-9.28453
lu	-9.28469
钢	-9.2849
▁se	-9.28541
▁open	-9.28553
▁run	-9.28777
盘	-9.28822
院	-9.28889
▁education	-9.28905
▁du	-9.28944
80	-9.29047
▁project	-9.29049
▁economic	-9.29159
致	-9.29184
费	-9.29195
如果你	-9.2924
意义	-9.29242
校	-9.29254
拥有	-9.29415
▁let	-9.29435
之前	-9.29453
叫	-9.29513
▁problems	-9.29598
我国	-9.29607
曲	-9.29643
变化	-9.29693
散	-9.29694
ions	-9.29764
及其	-9.29773
▁shall	-9.29876
伤	-9.29891
▁space	-9.29928
塞	-9.3001
水平	-9.30034
送	-9.30037
的方法	-9.30182
ile	-9.30312
▁local	-9.30322
性的	-9.30373
一位	-9.30388
tu	-9.30428
岁	-9.30473
▁le	-9.30501
案	-9.30738
决定	-9.3075
▁com	-9.30802
告诉	-9.30815
▁industry	-9.30867
tch	-9.31015
▁im	-9.31085
qui	-9.31125
port	-9.31127
义	-9.31199
▁product	-9.31321
段	-9.31329
▁St	-9.31408
▁family	-9.31429
ities	-9.31437
unt	-9.31469
界	-9.31516
索	-9.31683
vo	-9.3169
▁major	-9.31736
▁6	-9.31817
▁social	-9.31827
wi	-9.3195
环	-9.32096
ga	-9.32144
库	-9.32217
她的	-9.32227
▁land	-9.3227
ell	-9.3231
cent	-9.32383
牛	-9.32394
脑	-9.32406
穿	-9.32539
模	-9.32546
▁case	-9.32579
甚至	-9.32651
▁full	-9.32766
▁--	-9.32769
▁close	-9.32802
尽	-9.3292
程序	-9.33015
ven	-9.33062
导致	-9.33118
▁away	-9.33152
▁ti	-9.33188
的问题	-9.33309
完成	-9.33397
易	-9.33408
程	-9.33456
杀	-9.33459
破	-9.33509
▁common	-9.33539
▁energy	-9.33678
明显	-9.33698
▁20	-9.33777
▁left	-9.33781
▁gas	-9.33798
ba	-9.3388
..."	-9.33887
form	-9.33954
的研究	-9.33963
▁force	-9.33973
ber	-9.34141
ator	-9.34155
健康	-9.34298
晚	-9.34345
满	-9.34394
▁money	-9.34442
是一种	-9.34629
冷	-9.34646
▁course	-9.34668
香	-9.34725
ick	-9.34733
项	-9.34885
ship	-9.35052
▁top	-9.35136
萨	-9.35262
随着	-9.3529
然	-9.35325
▁according	-9.35416
▁far	-9.35445
serv	-9.35447
▁house	-9.35522
rt	-9.35546
望	-9.35559
▁game	-9.35598
▁micro	-9.35734
▁pass	-9.3585
▁means	-9.35858
姆	-9.35866
▁increase	-9.35873
▁period	-9.35899
▁American	-9.35924
断	-9.35979
各种	-9.35998
工艺	-9.36081
全球	-9.36325
▁Ba	-9.36466
▁file	-9.36467
完全	-9.36515
目标	-9.36578
▁again	-9.36587
▁got	-9.36618
然而	-9.36667
use	-9.36763
ron	-9.36779
结合	-9.3681
汽车	-9.37013
▁talk	-9.37014
减	-9.37063
let	-9.37074
▁machine	-9.37079
▁Ca	-9.37139
time	-9.37256
ns	-9.37258
▁young	-9.37276
ai	-9.37343
日本	-9.37404
ight	-9.37413
负	-9.37531
设	-9.37533
▁culture	-9.37657
▁single	-9.3767
▁health	-9.37679
术	-9.37699
▁past	-9.37736
改变	-9.37806
季	-9.37864
▁imp	-9.37908
▁live	-9.37946
▁pa	-9.38024
特征	-9.38065
今天	-9.38137
毒	-9.38143
▁Me	-9.38143
留	-9.38146
自然	-9.38176
派	-9.38201
,”	-9.3827
▁program	-9.38309
圣	-9.38459
▁str	-9.38613
▁building	-9.38697
菌	-9.38716
语言	-9.38749
▁job	-9.38808
▁reason	-9.38823
座	-9.38832
千	-9.38992
An	-9.39002
轻	-9.39065
ification	-9.39091
▁women	-9.39097
▁Hu	-9.39195
系	-9.39265
▁cause	-9.39407
操作	-9.39408
科学	-9.39439
▁came	-9.39481
15	-9.39552
接受	-9.39577
istic	-9.39613
占	-9.39809
▁believe	-9.3985
之间	-9.39969
资	-9.39979
效	-9.39985
比赛	-9.39991
客户	-9.40023
wa	-9.40154
▁em	-9.40255
丝	-9.40308
▁standard	-9.40322
份	-9.40382
电子	-9.40428
曼	-9.40513
升	-9.40555
Z	-9.4058
顶	-9.40706
过程中	-9.40729
宝	-9.40747
脱	-9.40761
▁higher	-9.40774
ever	-9.40778
探讨	-9.40915
▁countries	-9.40996
▁days	-9.41084
lin	-9.41098
▁studied	-9.41113
▁gl	-9.41143
静	-9.41337
通常	-9.41356
命	-9.4136
ore	-9.41361
吉	-9.41402
ay	-9.41436
投资	-9.41503
检测	-9.41548
限	-9.41673
读	-9.41716
麦	-9.41756
货	-9.41772
▁improve	-9.41782
毛	-9.4179
合作	-9.41798
▁flow	-9.4188
有效	-9.41884
▁turn	-9.41943
迪	-9.41975
汉	-9.42009
Q	-9.4206
固	-9.42112
美元	-9.42159
▁environment	-9.4218
脚	-9.42275
▁pe	-9.4228
▁tra	-9.42312
▁La	-9.42326
du	-9.42337
▁disease	-9.424
自由	-9.42414
笑	-9.42631
lar	-9.4275
先生	-9.42774
助	-9.42782
备	-9.42845
剧	-9.42851
确定	-9.4287
了解	-9.42924
滑	-9.42961
出来	-9.42967
众	-9.4298
▁Mar	-9.43098
记	-9.43112
▁methods	-9.43179
▁history	-9.4318
▁temperature	-9.43226
亲	-9.43273
▁Le	-9.4335
飞	-9.43382
苏	-9.43482
ue	-9.4349
直接	-9.43519
str	-9.4355
态	-9.43555
eng	-9.43567
18	-9.43603
▁add	-9.43605
减少	-9.43619
观察	-9.43621
based	-9.43726
提出了	-9.43734
人类	-9.43769
▁bank	-9.43779
▁night	-9.43802
岛	-9.43978
▁Ch	-9.43995
▁source	-9.44012
▁week	-9.44024
额	-9.44039
英	-9.441
创	-9.44139
降	-9.44149
▁influence	-9.44214
▁room	-9.44318
软件	-9.44339
▁early	-9.44344
了一	-9.44379
▁sw	-9.44382
▁among	-9.44403
▁surface	-9.44436
ability	-9.44503
gi	-9.44586
▁current	-9.44627
表现	-9.44662
▁feel	-9.44678
领域	-9.44731
fa	-9.44789
▁something	-9.44851
▁return	-9.44863
▁whole	-9.45054
置	-9.45058
▁hi	-9.45075
缺	-9.45124
控	-9.45133
row	-9.4519
每个	-9.45238
思	-9.45252
,“	-9.4528
▁Se	-9.45281
建筑	-9.45292
▁ta	-9.45301
ran	-9.4531
▁risk	-9.45317
甲	-9.45358
了一个	-9.45368
拿	-9.4539
ious	-9.45401
假	-9.45402
▁several	-9.45406
机构	-9.4545
现代	-9.45459
动物	-9.45536
富	-9.45552
▁step	-9.45574
▁da	-9.45618
Some	-9.4562
bi	-9.45671
Ma	-9.45761
▁read	-9.45791
cing	-9.45918
▁Po	-9.45987
▁together	-9.45999
虽然	-9.46051
势	-9.46105
救	-9.46168
达到	-9.46267
sa	-9.46313
▁material	-9.46347
11	-9.4639
▁share	-9.46438
官	-9.46463
架	-9.4653
恩	-9.46681
尽管	-9.46753
ition	-9.46773
▁j	-9.46796
ress	-9.46809
讲	-9.46928
运行	-9.46936
的话	-9.46953
状	-9.46967
结果表明	-9.46984
不同的	-9.47134
诺	-9.47142
造成	-9.47185
算法	-9.47188
养	-9.47232
▁author	-9.47313
▁fi	-9.4732
However	-9.47424
目	-9.47436
烟	-9.47619
▁–	-9.4762
航	-9.47624
ified	-9.47629
ible	-9.47641
▁7	-9.47655
ect	-9.47661
歌	-9.4773
继续	-9.47793
游	-9.47806
▁deep	-9.47838
保持	-9.47906
▁relationship	-9.47948
紧	-9.47995
孔	-9.48177
▁color	-9.48224
初	-9.48292
章	-9.48434
ao	-9.48487
rr	-9.48487
学校	-9.48536
肉	-9.48558
增长	-9.4857
tter	-9.48589
ates	-9.48592
班	-9.48593
▁introduced	-9.48667
价格	-9.48798
ries	-9.4886
ture	-9.48943
条件	-9.48997
▁future	-9.49056
▁given	-9.49091
报告	-9.49093
并不	-9.49185
▁v	-9.49279
顿	-9.49302
▁sha	-9.49372
糖	-9.49388
审	-9.49388
▁language	-9.49426
艺术	-9.49469
year	-9.4948
激	-9.49524
▁cases	-9.49703
伯	-9.49707
换	-9.49723
These	-9.4973
lf	-9.49767
不要	-9.49775
胶	-9.49955
藏	-9.49959
▁An	-9.50033
园	-9.5028
速	-9.5031
领	-9.50398
io	-9.50418
是在	-9.50599
▁growth	-9.50611
针对	-9.50712
▁sign	-9.50801
友	-9.50811
▁working	-9.5083
▁pressure	-9.50878
▁effective	-9.50892
su	-9.509
▁University	-9.50911
影	-9.50918
组成	-9.5093
▁cover	-9.50954
久	-9.50987
▁million	-9.51085
▁app	-9.51091
改	-9.51105
恶	-9.51161
传统	-9.51195
受到	-9.51195
My	-9.51235
▁tell	-9.51251
登	-9.51352
▁—	-9.51371
gg	-9.51408
认	-9.5143
停	-9.51477
算	-9.51479
▁pay	-9.51496
▁basic	-9.51507
▁times	-9.51627
形式	-9.51635
龙	-9.51639
状态	-9.51659
▁making	-9.51754
莱	-9.51758
▁pr	-9.51769
无法	-9.51838
ify	-9.51871
政治	-9.51924
注意	-9.51953
考虑	-9.52094
▁construction	-9.52101
▁interest	-9.52115
夜	-9.52123
积	-9.52157
专业	-9.52159
自动	-9.52181
掉	-9.52181
护	-9.5228
冰	-9.52308
套	-9.5246
rm	-9.52554
dic	-9.52598
特性	-9.52641
厂	-9.52649
▁Y	-9.52675
延	-9.52684
so	-9.5272
进入	-9.52791
▁computer	-9.52902
团	-9.52985
▁hold	-9.53045
鲁	-9.53056
lay	-9.53109
for	-9.53117
▁effects	-9.53183
降低	-9.53186
▁cor	-9.53254
青	-9.53287
仍	-9.53356
par	-9.53366
▁ten	-9.53478
▁told	-9.53496
▁role	-9.53614
灵	-9.53648
含	-9.53655
块	-9.53677
▁principle	-9.53685
消	-9.53743
电影	-9.53784
思想	-9.53922
▁create	-9.53927
工具	-9.53941
▁near	-9.5401
▁simple	-9.54042
▁forward	-9.54093
▁developed	-9.54134
han	-9.54187
令	-9.54205
带来	-9.54268
ef	-9.54273
▁super	-9.54281
史	-9.54289
▁Pro	-9.54332
ient	-9.54368
磁	-9.54399
▁9	-9.54449
松	-9.54454
ev	-9.54467
如此	-9.54482
▁English	-9.54534
▁record	-9.5455
找	-9.54569
all	-9.54603
它的	-9.54707
类型	-9.54734
▁US	-9.54754
▁deal	-9.54777
待	-9.54793
lan	-9.54807
必	-9.54807
5%	-9.5481
▁fact	-9.54889
求	-9.5498
”,	-9.54985
临床	-9.55027
伊	-9.55087
▁book	-9.55099
pi	-9.55253
By	-9.55258
▁plan	-9.55356
母	-9.55415
测	-9.55426
洗	-9.55452
森	-9.55516
程度	-9.55532
建议	-9.55561
▁fo	-9.55591
▁already	-9.55617
速度	-9.55647
▁blood	-9.55732
▁list	-9.55768
▁within	-9.55793
▁Con	-9.55806
▁site	-9.55853
个人	-9.55892
▁natural	-9.55928
阻	-9.56082
整个	-9.56095
▁ha	-9.56105
ler	-9.56142
▁region	-9.56166
议	-9.56181
大的	-9.5624
▁Pa	-9.5625
ving	-9.56257
那个	-9.56286
代表	-9.56293
sp	-9.56324
杰	-9.56332
fe	-9.56442
▁develop	-9.56458
▁film	-9.56459
世纪	-9.56512
缩	-9.56516
家庭	-9.56556
的重要	-9.56616
▁characteristics	-9.56631
by	-9.56696
▁focus	-9.568
总统	-9.56825
▁traditional	-9.56836
镜	-9.56913
系统的	-9.56978
ze	-9.56983
▁red	-9.56998
建设	-9.57006
▁shows	-9.57042
不断	-9.57212
奖	-9.57257
▁hope	-9.57287
介绍	-9.57449
▁practice	-9.57469
洛	-9.57476
餐	-9.5753
▁today	-9.57539
一般	-9.57577
▁visit	-9.57588
就会	-9.57638
▁Sa	-9.57693
Now	-9.57704
精神	-9.57717
印	-9.57733
▁Ha	-9.57751
勒	-9.57761
▁mechanism	-9.57859
70	-9.57884
▁certain	-9.57913
▁image	-9.57958
light	-9.5796
▁buy	-9.58005
基因	-9.58044
这样的	-9.58046
▁8	-9.58097
基本	-9.58125
音乐	-9.58225
▁bring	-9.58272
云	-9.58292
岩	-9.58311
笔	-9.58341
cess	-9.58421
▁makes	-9.58493
▁economy	-9.58494
威	-9.58512
▁difficult	-9.58728
足	-9.58828
au	-9.58851
▁heat	-9.58858
分布	-9.58864
▁o	-9.58865
将会	-9.58867
▁modern	-9.58873
境	-9.5889
研究了	-9.58926
神经	-9.58989
▁went	-9.59008
症	-9.5904
▁position	-9.59059
▁X	-9.59073
▁allow	-9.59084
40	-9.59093
▁approach	-9.59095
教学	-9.59164
冲	-9.5923
aw	-9.5929
nch	-9.59385
位于	-9.59405
▁trans	-9.59425
Conclusion	-9.59441
▁Di	-9.5953
▁five	-9.59555
他说	-9.59564
pa	-9.59576
何	-9.59587
fu	-9.59691
▁took	-9.59727
90	-9.59733
余	-9.59836
hen	-9.59843
有些	-9.59847
▁general	-9.59867
重新	-9.59888
文章	-9.59919
这里	-9.59921
▁code	-9.60011
生命	-9.60038
▁table	-9.60083
ping	-9.60094
ome	-9.60253
执行	-9.60266
一起	-9.60275
ned	-9.60303
准备	-9.60352
tre	-9.60448
按	-9.60485
好的	-9.60504
▁remain	-9.6051
缓	-9.60647
▁once	-9.60718
izing	-9.60745
参数	-9.60754
材	-9.60763
▁act	-9.60779
圆	-9.60979
▁fast	-9.61049
需	-9.6105
▁along	-9.61071
▁half	-9.61106
▁No	-9.61203
业务	-9.61241
税	-9.61248
持	-9.61251
田	-9.61337
表明	-9.61394
互	-9.61397
▁solution	-9.6146
野	-9.61468
细	-9.61497
▁care	-9.61528
▁fire	-9.61591
res	-9.61744
弹	-9.61766
▁showed	-9.61771
贝	-9.61796
▁cell	-9.61818
▁white	-9.61825
▁difference	-9.61831
一家	-9.61841
br	-9.61872
▁mu	-9.61873
办	-9.61985
▁So	-9.62047
▁United	-9.62105
的主要	-9.62115
区域	-9.62133
网站	-9.62139
▁object	-9.62153
超过	-9.6218
▁lower	-9.62231
▁device	-9.62246
严重	-9.62277
裂	-9.62324
以来	-9.62333
▁Bo	-9.62468
找到	-9.62566
需求	-9.62588
▁ne	-9.62637
His	-9.62711
▁Gu	-9.62805
ming	-9.62866
未来	-9.62874
工业	-9.62877
▁enough	-9.6288
政策	-9.62906
ular	-9.62947
博	-9.62991
▁fall	-9.63068
八	-9.63075
ug	-9.63088
▁international	-9.63119
mal	-9.63126
ulation	-9.6316
表达	-9.63209
press	-9.63211
独	-9.63239
的一	-9.63239
▁sea	-9.63287
▁national	-9.63298
举	-9.63327
倒	-9.63398
▁age	-9.63474
江	-9.6351
族	-9.63557
且	-9.63588
▁text	-9.63591
愿	-9.63703
ace	-9.63777
▁lead	-9.63809
一切	-9.63852
体系	-9.63914
盖	-9.63924
礼	-9.6398
▁cha	-9.64004
ign	-9.64051
今	-9.64217
▁tri	-9.64222
露	-9.64254
▁fa	-9.64262
课	-9.64278
制造	-9.64294
引起	-9.64351
报道	-9.64384
瑞	-9.6439
▁unit	-9.64436
nk	-9.64484
ging	-9.64487
店	-9.64497
St	-9.64527
纸	-9.64539
▁later	-9.64641
原因	-9.6474
▁mis	-9.6478
gn	-9.6488
▁specific	-9.64897
北京	-9.64917
▁above	-9.64929
绝	-9.64932
楼	-9.64949
cer	-9.64964
付	-9.64986
频	-9.64999
▁For	-9.65065
▁continue	-9.65069
▁total	-9.65086
电视	-9.65246
▁na	-9.65294
的发展	-9.65344
一名	-9.65507
day	-9.65524
压力	-9.65582
All	-9.65588
居	-9.65614
▁star	-9.65642
欧洲	-9.65659
▁base	-9.65672
ear	-9.65903
之间的	-9.65914
小时	-9.65981
决	-9.65992
ped	-9.65994
事件	-9.66
刚	-9.66001
har	-9.66014
贵	-9.66037
参加	-9.66177
▁al	-9.66209
cr	-9.66216
▁known	-9.66282
16	-9.6629
努力	-9.66348
ach	-9.66364
时候	-9.66372
tri	-9.66487
▁until	-9.66521
▁account	-9.66535
bb	-9.66554
讨论	-9.66562
司	-9.66579
景	-9.66586
雅	-9.6661
▁mind	-9.66619
最近	-9.6669
风险	-9.6669
ject	-9.66755
迷	-9.66761
知识	-9.66765
表面	-9.66808
例如	-9.66834
分析了	-9.66918
复杂	-9.66934
Then	-9.6694
炎	-9.66944
政	-9.66955
▁situation	-9.66972
过去	-9.66973
一下	-9.66974
同样	-9.66983
移	-9.67006
的新	-9.671
广泛	-9.6712
▁cut	-9.67173
感到	-9.67419
偏	-9.67455
▁mother	-9.67505
坐	-9.67528
▁cap	-9.67569
晶	-9.67612
床	-9.67715
▁why	-9.67734
不可	-9.67763
感觉	-9.67766
农	-9.67779
▁trade	-9.67803
衣	-9.6781
位置	-9.67837
ants	-9.67917
ble	-9.67951
▁rest	-9.67974
▁plant	-9.68007
的工作	-9.6804
务	-9.68054
评价	-9.68068
承	-9.68084
营	-9.68125
▁God	-9.68163
▁ab	-9.6818
综合	-9.68216
提供了	-9.68316
▁various	-9.68317
▁software	-9.68365
▁clear	-9.68375
玩	-9.68465
措施	-9.68489
▁experiment	-9.68503
折	-9.68534
tation	-9.68584
检查	-9.68591
▁thing	-9.68591
实际	-9.68627
▁mode	-9.68666
最终	-9.68743
供	-9.68746
守	-9.68747
借	-9.68779
蒂	-9.68779
oo	-9.6878
宽	-9.68907
跑	-9.69021
证明	-9.69046
化学	-9.69069
句	-9.69116
ou	-9.69144
虫	-9.69221
透	-9.69227
av	-9.69233
测量	-9.693
瓦	-9.69336
▁poly	-9.69339
灯	-9.69354
▁foreign	-9.69456
弗	-9.69482
lie	-9.69508
▁spec	-9.6955
nder	-9.69582
▁possible	-9.69598
▁discussed	-9.6961
牙	-9.69629
一项	-9.69638
▁sur	-9.69692
pt	-9.69716
▁least	-9.69719
int	-9.69744
▁music	-9.69759
ise	-9.69811
封	-9.69857
进一步	-9.69905
有一个	-9.6994
背	-9.69967
植物	-9.70006
机会	-9.70122
准	-9.70164
cul	-9.70166
▁stand	-9.70175
年的	-9.70194
ins	-9.70215
▁walk	-9.70219
▁wave	-9.70238
▁child	-9.70257
How	-9.70258
clo	-9.70275
▁analyzed	-9.70288
▁able	-9.70337
另一	-9.70477
方案	-9.70518
No	-9.70576
伦	-9.7062
资料	-9.70624
数字	-9.70645
▁action	-9.70661
几个	-9.70668
编	-9.70688
▁price	-9.7072
湖	-9.70722
ath	-9.70733
▁access	-9.70734
▁systems	-9.70764
所有的	-9.70766
▁sun	-9.70778
▁And	-9.70804
经验	-9.70808
投	-9.70875
▁etc	-9.7093
卖	-9.70936
雨	-9.70983
▁detail	-9.71054
硬	-9.71079
户	-9.71091
ier	-9.71103
制度	-9.71154
▁bar	-9.71313
cur	-9.71325
获	-9.71422
第三	-9.71444
星期	-9.71446
为什么	-9.71449
街	-9.71585
500	-9.71588
镇	-9.71589
李	-9.71673
▁further	-9.71684
害	-9.71798
仍然	-9.71817
耐	-9.71927
谁	-9.71936
▁Su	-9.71941
▁cells	-9.72011
弱	-9.72016
七	-9.72063
更加	-9.72095
副	-9.72096
票	-9.72225
▁mainly	-9.72227
顺	-9.72228
其它	-9.72244
▁ever	-9.72411
▁port	-9.72442
成本	-9.72497
vent	-9.72513
印度	-9.72572
_	-9.72615
大多数	-9.72667
是个	-9.72697
卫	-9.72844
▁algorithm	-9.72847
刻	-9.72885
荷	-9.72894
分子	-9.72908
今年	-9.72989
怎么	-9.73041
法律	-9.73053
销售	-9.73116
▁global	-9.73161
侧	-9.73246
▁Da	-9.73254
den	-9.73268
uck	-9.73271
对象	-9.73276
▁cur	-9.73283
馆	-9.73336
▁black	-9.73388
党	-9.73405
域	-9.7343
ja	-9.73461
应用程序	-9.7355
ec	-9.73617
销	-9.73641
▁month	-9.73667
英语	-9.7368
幅	-9.73723
ah	-9.73741
治	-9.73752
女性	-9.73802
▁especially	-9.73809
▁factors	-9.73835
fer	-9.73851
▁changes	-9.73904
村	-9.73946
▁speed	-9.73951
稳定	-9.73968
▁conditions	-9.73977
▁i	-9.73993
菜	-9.73995
简单	-9.74024
首先	-9.74036
▁move	-9.74067
lit	-9.74193
指出	-9.74225
▁ground	-9.74326
▁complete	-9.74396
gue	-9.74406
▁condition	-9.74414
温度	-9.74431
ane	-9.7444
地方	-9.74479
归	-9.74513
沉	-9.74529
创建	-9.74581
,\"	-9.74597
▁death	-9.74632
旧	-9.74664
▁recent	-9.74686
令人	-9.74699
▁You	-9.74706
▁acid	-9.74746
▁South	-9.74774
▁contain	-9.7479
丁	-9.74896
含量	-9.74944
题	-9.74974
快速	-9.74979
▁eat	-9.74987
描述	-9.75003
▁mass	-9.75018
▁concept	-9.75027
uc	-9.75056
men	-9.75288
参	-9.75304
任务	-9.75396
▁stage	-9.75406
雪	-9.75458
桥	-9.75507
ple	-9.75515
21	-9.75602
chi	-9.75603
▁equipment	-9.75634
▁words	-9.75636
▁Do	-9.75748
▁wall	-9.75759
ric	-9.75852
几乎	-9.75858
▁companies	-9.75869
▁size	-9.7589
air	-9.75938
阶段	-9.75952
创造	-9.75955
杯	-9.75961
相信	-9.75972
止	-9.75985
解释	-9.7599
▁security	-9.7602
仪	-9.76031
属	-9.76044
电话	-9.76069
▁break	-9.76092
仅	-9.76106
消息	-9.76109
游戏	-9.76116
▁path	-9.76167
默	-9.76186
▁seen	-9.76233
展	-9.76252
ded	-9.76329
特点	-9.76331
粒	-9.76355
Do	-9.76429
▁features	-9.76438
▁Web	-9.76466
也许	-9.76518
De	-9.76536
▁teaching	-9.76556
▁dec	-9.7666
补	-9.76849
莫	-9.76859
▁produce	-9.7686
若	-9.76864
▁series	-9.76878
软	-9.76884
▁others	-9.76987
▁subject	-9.77011
▁disc	-9.77223
▁Beijing	-9.77328
箱	-9.77408
连接	-9.77452
▁draw	-9.77466
▁bit	-9.77467
诗	-9.77475
▁whether	-9.77558
mission	-9.7756
ency	-9.77633
信号	-9.77672
vol	-9.7768
▁win	-9.77757
struct	-9.77784
•	-9.77791
死亡	-9.77791
▁ga	-9.77807
ery	-9.77849
▁consider	-9.77874
佛	-9.77921
▁proposed	-9.77966
井	-9.78
ny	-9.78052
▁areas	-9.78186
显著	-9.78221
▁Al	-9.78297
身体	-9.78346
j	-9.78507
故事	-9.7853
▁basis	-9.78544
▁materials	-9.78576
就像	-9.78584
mic	-9.78619
ew	-9.78619
ps	-9.7865
▁idea	-9.78705
▁meet	-9.78735
like	-9.78824
惊	-9.78842
▁normal	-9.78859
蒙	-9.78943
▁bl	-9.79033
▁character	-9.79055
喜	-9.79055
▁complex	-9.79077
▁Com	-9.79109
退	-9.79133
▁media	-9.79134
▁We	-9.7919
比如	-9.79194
▁personal	-9.79202
▁ago	-9.79212
益	-9.79213
▁done	-9.79278
疾病	-9.79316
吸	-9.7932
own	-9.79337
金属	-9.7934
定义	-9.79356
25	-9.79376
的时间	-9.79486
▁works	-9.79657
▁Lo	-9.7968
盐	-9.79706
▁having	-9.79706
错	-9.79741
充	-9.79796
▁suggest	-9.79827
▁ability	-9.7983
九	-9.79844
出了	-9.79857
▁easy	-9.7988
▁check	-9.79886
轴	-9.80047
说明	-9.80058
▁matter	-9.80111
14	-9.80136
可能会	-9.80204
我想	-9.80297
▁clean	-9.80319
▁Be	-9.80416
取得	-9.80423
eg	-9.80441
典	-9.80459
竞争	-9.80459
val	-9.80461
▁presented	-9.8051
▁drug	-9.80541
▁store	-9.80583
▁concern	-9.8059
▁goal	-9.80591
摩	-9.80592
机制	-9.80667
ase	-9.80686
▁green	-9.80693
pp	-9.8071
▁months	-9.80728
ute	-9.80773
码	-9.808
另外	-9.80808
▁related	-9.8089
ki	-9.80907
▁road	-9.80916
tar	-9.80937
▁won	-9.80954
▁include	-9.80954
▁gene	-9.80993
舞	-9.80994
▁cross	-9.81005
方向	-9.81077
的小	-9.81155
参与	-9.8116
▁watch	-9.81214
汇	-9.81231
从而	-9.81253
跳	-9.81303
▁center	-9.81354
厚	-9.8138
个月	-9.81402
▁card	-9.81433
阳	-9.81434
▁target	-9.81438
sk	-9.81455
▁front	-9.8151
▁demand	-9.81522
经过	-9.81529
序	-9.81575
▁Ga	-9.817
争	-9.81746
According	-9.81795
ged	-9.81822
包含	-9.81838
亮	-9.81839
磨	-9.81846
ey	-9.81852
评	-9.81931
交易	-9.81936
▁build	-9.82022
cl	-9.82034
关注	-9.82084
作品	-9.82156
隐	-9.82183
rea	-9.82199
乱	-9.82215
▁amount	-9.82216
vision	-9.82289
的地方	-9.82294
tle	-9.82298
nic	-9.82305
▁lu	-9.82312
长期	-9.82334
时期	-9.82372
▁tea	-9.82383
▁Mi	-9.82421
临	-9.82471
▁Ra	-9.82494
纯	-9.82548
PC	-9.82555
▁Na	-9.82655
ert	-9.8266
变得	-9.82695
订	-9.82705
▁steel	-9.82711
灰	-9.82768
丽	-9.82773
▁mar	-9.82817
ists	-9.8282
▁mean	-9.82888
▁reduce	-9.82896
13	-9.8291
▁sound	-9.82912
既	-9.82946
记录	-9.82961
cy	-9.83045
装置	-9.83074
sign	-9.83101
▁fe	-9.8312
▁friend	-9.8313
▁technique	-9.83146
▁Ju	-9.83148
ray	-9.83162
tan	-9.83349
三个	-9.83376
当然	-9.83386
▁learn	-9.83391
奶	-9.8344
物质	-9.8345
▁wind	-9.83469
matic	-9.835
完	-9.83504
时代	-9.83579
煤	-9.83651
▁services	-9.83672
暴	-9.83681
ological	-9.83717
▁similar	-9.83747
▁skin	-9.83761
▁rock	-9.838
新闻	-9.8381
版	-9.83835
▁18	-9.83885
▁six	-9.83909
▁gold	-9.83917
更多的	-9.83937
▁designed	-9.8395
cle	-9.83951
mm	-9.84
行动	-9.84078
ker	-9.84079
▁12	-9.84185
▁Jo	-9.84222
▁style	-9.84226
iv	-9.84309
stat	-9.84487
▁protect	-9.84548
▁pattern	-9.84585
▁girl	-9.84665
彩	-9.84726
人民	-9.84742
▁following	-9.84774
觉	-9.84799
▁distribution	-9.84852
of	-9.84854
▁fish	-9.84938
保证	-9.84948
终	-9.84992
总是	-9.85031
现象	-9.85039
▁needs	-9.85052
▁bad	-9.85061
概念	-9.85089
一天	-9.85106
行业	-9.85118
▁Ho	-9.85132
不仅	-9.85182
▁across	-9.85195
▁potential	-9.85211
兴	-9.85217
零	-9.85223
▁load	-9.85341
▁individual	-9.85431
▁auto	-9.85458
手术	-9.85533
▁tax	-9.85615
▁cre	-9.85719
▁advantage	-9.85797
朝	-9.85851
某	-9.85932
▁benefit	-9.85943
持续	-9.85976
判	-9.86029
卷	-9.86034
蛋白	-9.86092
酶	-9.86093
原理	-9.86104
息	-9.8619
▁issue	-9.86191
ware	-9.86215
ments	-9.86235
模拟	-9.86247
▁policy	-9.86294
▁attack	-9.863
▁sure	-9.86326
会议	-9.86336
隔	-9.86348
春	-9.86386
ka	-9.86394
更多	-9.86394
▁user	-9.86504
▁financial	-9.86511
▁points	-9.86517
你可以	-9.86584
▁almost	-9.86604
探	-9.86606
一点	-9.86652
▁hot	-9.86676
脸	-9.86739
▁understand	-9.86756
▁link	-9.86796
▁due	-9.86803
▁try	-9.8682
rk	-9.86837
tern	-9.86859
宫	-9.86957
代码	-9.87031
化的	-9.87039
▁stress	-9.87117
▁eyes	-9.87257
储	-9.87264
▁friends	-9.87272
录	-9.87274
染	-9.87287
窗	-9.87307
图像	-9.87319
计算机	-9.87349
▁va	-9.87355
牌	-9.87367
▁saw	-9.87387
▁bus	-9.87556
▁document	-9.87758
▁third	-9.87765
胜	-9.87819
ature	-9.87821
arch	-9.87882
告	-9.87883
▁capital	-9.8794
fin	-9.87945
医	-9.88012
食品	-9.88028
丹	-9.88038
联系	-9.88058
rup	-9.88077
sta	-9.88282
男	-9.88294
▁though	-9.88314
乳	-9.88325
也不	-9.8836
▁door	-9.88402
mun	-9.88514
商业	-9.88556
bit	-9.88558
经常	-9.88621
\"."	-9.88654
▁leg	-9.88678
▁father	-9.88772
药物	-9.88796
▁applied	-9.8892
▁moment	-9.88934
岁的	-9.88938
▁search	-9.88975
pir	-9.8911
cu	-9.89122
儿童	-9.89137
▁States	-9.89149
Methods	-9.89172
损	-9.89194
ix	-9.89213
▁North	-9.89222
▁society	-9.89243
分别	-9.89247
17	-9.89252
采	-9.89254
set	-9.8932
▁enter	-9.89321
Co	-9.89382
特别	-9.89445
共同	-9.89472
专家	-9.89478
氧化	-9.89509
▁op	-9.89578
▁didn	-9.89626
篇	-9.89634
测定	-9.89634
癌	-9.89649
▁provides	-9.89697
肥	-9.89729
概	-9.89736
墙	-9.89757
▁cat	-9.89772
▁prevent	-9.89824
▁office	-9.89855
▁clinical	-9.89864
mor	-9.89873
改善	-9.89893
pri	-9.89945
▁living	-9.89952
ung	-9.89979
▁travel	-9.90013
媒体	-9.90051
cial	-9.90091
范围	-9.90122
mark	-9.90128
梅	-9.90156
即使	-9.90158
分钟	-9.90178
倍	-9.90202
▁taken	-9.90245
下的	-9.90294
▁late	-9.90294
art	-9.90311
安装	-9.90324
痛	-9.90343
fo	-9.90369
正常	-9.90417
are	-9.90428
碳	-9.90439
薄	-9.90512
etic	-9.90518
get	-9.90527
Be	-9.90541
▁woman	-9.90547
当时	-9.90652
食物	-9.90661
运用	-9.90686
rate	-9.90692
上海	-9.90745
▁speak	-9.90757
肌	-9.90782
▁popular	-9.90793
Ch	-9.90799
▁attention	-9.90819
平均	-9.90821
诊断	-9.90834
泰	-9.90841
两种	-9.90844
▁15	-9.90858
▁30	-9.90894
CT	-9.90907
▁Ar	-9.90945
差异	-9.90969
AR	-9.91009
▁available	-9.91245
历	-9.91259
▁photo	-9.91266
东西	-9.91282
ren	-9.91294
▁question	-9.91297
▁cannot	-9.91298
▁son	-9.91346
▁metal	-9.91364
▁signal	-9.91365
期间	-9.91377
一条	-9.91397
追	-9.91427
的大	-9.91453
结束	-9.91481
Con	-9.91486
述	-9.91521
▁indicate	-9.91584
坏	-9.91589
gre	-9.91623
似乎	-9.91637
▁dynamic	-9.91662
肝	-9.91707
▁knowledge	-9.91742
▁hydro	-9.91773
aging	-9.91775
附	-9.91777
▁season	-9.91796
心理	-9.91798
▁training	-9.91885
才能	-9.91926
些	-9.91943
yl	-9.91945
考	-9.91958
ans	-9.92045
觉得	-9.92086
泥	-9.92119
▁reported	-9.92122
▁addition	-9.92137
vers	-9.92144
▁coll	-9.9216
ory	-9.92196
AP	-9.92204
▁political	-9.92247
下来	-9.92304
「	-9.92321
▁resources	-9.92324
显	-9.92378
▁America	-9.92427
社	-9.92431
十分	-9.92518
越来越	-9.92575
part	-9.92577
混	-9.92601
Based	-9.92717
在这	-9.92727
▁reflect	-9.92731
喷	-9.92742
实践	-9.92779
▁&	-9.92853
▁outside	-9.93009
加工	-9.93083
艾	-9.93089
理解	-9.93156
纤维	-9.93253
罪	-9.93272
想要	-9.93307
正确	-9.93343
100	-9.93349
▁engine	-9.93358
equ	-9.93367
▁yet	-9.93371
len	-9.93474
确	-9.93487
lia	-9.93501
使得	-9.93619
▁degree	-9.93632
避免	-9.93665
nes	-9.93674
当地	-9.93682
ob	-9.93708
ink	-9.93723
金融	-9.93734
▁success	-9.93738
▁review	-9.9379
埃	-9.93825
特殊	-9.93861
▁arm	-9.93868
鲜	-9.93877
错误	-9.93887
大家	-9.94058
200	-9.94079
vis	-9.94091
itive	-9.94108
▁video	-9.94112
▁solve	-9.94173
SO	-9.94183
▁range	-9.94272
部门	-9.94295
▁slow	-9.94388
▁message	-9.94399
▁follow	-9.9441
至少	-9.94418
效率	-9.9445
除了	-9.94475
▁looking	-9.945
允许	-9.94531
志	-9.94559
▁began	-9.94585
her	-9.94607
body	-9.94664
满足	-9.94706
电脑	-9.94707
▁stop	-9.94762
▁decision	-9.94841
希	-9.94862
▁sell	-9.94908
sol	-9.9491
▁Sha	-9.94926
迹	-9.94946
lock	-9.94967
检	-9.95001
▁damage	-9.95006
集团	-9.95016
医生	-9.95063
▁asked	-9.95077
▁ask	-9.95091
饭	-9.95135
▁Ja	-9.95154
感染	-9.95177
突	-9.9519
az	-9.95219
茶	-9.95224
bin	-9.9523
wer	-9.9524
病毒	-9.9527
Our	-9.95293
ose	-9.95359
凯	-9.95396
▁loss	-9.95403
容易	-9.95518
实施	-9.95526
▁billion	-9.95529
良	-9.95606
▁page	-9.95637
裁	-9.95646
左	-9.95696
迫	-9.957
狗	-9.957
构	-9.95719
gar	-9.95766
▁appear	-9.9581
ration	-9.95813
▁flu	-9.95853
▁accept	-9.95901
og	-9.95907
▁beautiful	-9.95915
MS	-9.95922
hou	-9.95926
▁parts	-9.96001
劳	-9.96059
依	-9.96104
急	-9.96122
哪	-9.96165
mber	-9.96216
疑	-9.96256
amp	-9.96323
▁comes	-9.96357
课程	-9.96403
▁soil	-9.96411
采取	-9.96472
if	-9.96485
lor	-9.96495
夏	-9.96515
22	-9.96545
数量	-9.96554
▁ob	-9.96594
▁organization	-9.9661
以上	-9.96636
▁Pe	-9.96698
▁enjoy	-9.96712
▁establish	-9.96794
▁explain	-9.96808
▁nature	-9.96832
▁sense	-9.96836
▁middle	-9.96845
那样	-9.96917
▁activity	-9.97008
ib	-9.9701
▁word	-9.97023
▁wait	-9.97037
插	-9.97043
认识	-9.97048
▁taking	-9.97109
阵	-9.97119
▁likely	-9.97125
肠	-9.97133
负责	-9.9717
▁cold	-9.97202
▁investigate	-9.97259
▁firm	-9.97274
成员	-9.97284
▁match	-9.97321
哥	-9.97321
唱	-9.97369
▁section	-9.97459
▁cent	-9.97498
---	-9.97504
预测	-9.97525
倾	-9.97587
访问	-9.97593
氧	-9.97607
最大	-9.9764
▁represent	-9.97729
▁original	-9.97735
pho	-9.97736
贸易	-9.97742
抽	-9.97812
hy	-9.97819
太阳	-9.97875
湿	-9.97891
▁average	-9.97893
▁doing	-9.97919
必要	-9.97938
学家	-9.97962
银	-9.9798
▁actually	-9.98002
▁qua	-9.98066
婚	-9.98072
杆	-9.98105
涂	-9.98105
▁ship	-9.98156
▁significant	-9.98156
批	-9.98159
-1	-9.9819
具体	-9.98192
▁studies	-9.98197
加入	-9.98198
犯	-9.98223
▁mark	-9.98244
警	-9.98246
溶	-9.98276
▁World	-9.98277
▁employ	-9.98428
混合	-9.98498
坚	-9.98515
ral	-9.98517
征	-9.98613
▁impact	-9.98634
▁weight	-9.98635
▁usually	-9.9865
term	-9.98652
▁strength	-9.98652
▁spirit	-9.98675
训练	-9.9875
log	-9.98761
武	-9.98778
净	-9.98809
苦	-9.98811
low	-9.98828
函数	-9.98901
▁block	-9.98915
qu	-9.9893
育	-9.98956
戴	-9.98975
▁properties	-9.99101
伴	-9.99108
▁rich	-9.99129
患	-9.99142
类似	-9.99178
收入	-9.99231
学院	-9.99249
最大的	-9.99275
」	-9.99382
制作	-9.99395
针	-9.9943
体的	-9.99477
▁circ	-9.99519
策略	-9.9952
遇	-9.99529
杂	-9.99569
oid	-9.99582
ax	-9.99594
最佳	-9.99608
移动	-9.99619
fra	-9.9968
▁layer	-9.99684
▁brain	-9.99729
▁rep	-9.99747
▁display	-9.9981
欧	-9.99835
尾	-9.99859
▁consist	-9.99865
▁property	-9.99884
▁spend	-9.99956
改革	-9.99988
▁stay	-10
遗	-10.0002
▁story	-10.0008
公司的	-10.0009
相对	-10.0013
▁started	-10.0015
CO	-10.0015
▁built	-10.0018
ons	-10.0019
元素	-10.002
耳	-10.0021
uff	-10.0022
乡	-10.0023
▁affect	-10.0024
壁	-10.0025
径	-10.0026
谱	-10.0028
room	-10.003
侵	-10.0033
▁communication	-10.0034
▁became	-10.0049
round	-10.0051
废	-10.0052
施	-10.0052
▁ju	-10.0054
▁meeting	-10.0056
▁0	-10.0057
▁leader	-10.0059
曾经	-10.0061
善	-10.0063
ox	-10.0067
ML	-10.0071
生长	-10.0072
这么	-10.0075
ably	-10.0075
dia	-10.0078
kin	-10.0081
振	-10.0086
独立	-10.0086
▁ver	-10.0087
CD	-10.0087
沿	-10.0089
▁double	-10.0093
▁Car	-10.0095
▁avoid	-10.0097
Results	-10.0098
▁wa	-10.01
▁tend	-10.01
他在	-10.0101
▁nation	-10.0109
▁contract	-10.011
▁su	-10.0111
▁response	-10.0112
帕	-10.0113
每天	-10.0115
▁Ta	-10.0118
▁farm	-10.0118
ural	-10.0129
相当	-10.013
▁explore	-10.0134
AN	-10.0137
zz	-10.0138
tru	-10.0142
IS	-10.0143
▁processing	-10.0144
仅仅	-10.0146
▁charge	-10.0147
▁safety	-10.0147
法国	-10.015
粘	-10.0156
适	-10.0157
意味着	-10.0162
去年	-10.0166
work	-10.0173
旅游	-10.0185
经历	-10.0187
性和	-10.0191
gy	-10.0193
car	-10.0197
大部分	-10.0198
卫生	-10.0199
China	-10.0209
▁transfer	-10.0215
的作用	-10.0217
宁	-10.0219
▁Te	-10.0221
▁increased	-10.0224
大量	-10.0226
▁hours	-10.023
cho	-10.0231
睡	-10.0233
▁index	-10.0233
里的	-10.0237
▁soon	-10.0238
许	-10.0243
▁fight	-10.0243
▁Sp	-10.0244
▁cla	-10.0246
AT	-10.0247
优化	-10.0253
▁town	-10.0259
很大	-10.0262
off	-10.0262
▁expect	-10.0264
nal	-10.0266
▁picture	-10.0267
▁Japan	-10.0267
▁wear	-10.0269
下降	-10.027
▁director	-10.0271
▁send	-10.0271
▁fund	-10.0272
康	-10.0282
▁grow	-10.0286
▁behavior	-10.0291
▁stock	-10.0293
▁wide	-10.0294
来的	-10.0295
28	-10.0302
靠	-10.0302
▁direct	-10.0307
页	-10.0308
诚	-10.0308
纹	-10.0309
协议	-10.0312
围	-10.032
译	-10.0325
▁analyze	-10.0327
▁upon	-10.0329
▁piece	-10.033
▁increasing	-10.0331
▁Ex	-10.0332
的东西	-10.0333
iz	-10.0335
graph	-10.0339
培养	-10.0343
23	-10.0346
峰	-10.0349
Mo	-10.0349
链	-10.0353
真的	-10.0354
Mr	-10.0356
怀	-10.0359
rd	-10.0359
▁types	-10.0361
▁caused	-10.0362
▁established	-10.0365
以前	-10.0368
Because	-10.037
有人	-10.0372
国内	-10.0372
的关系	-10.0372
无论	-10.0375
梦	-10.0377
From	-10.038
ult	-10.0381
刀	-10.0382
▁inside	-10.039
合理	-10.039
鸡	-10.0396
▁applications	-10.04
席	-10.0405
设置	-10.0406
某些	-10.0409
麻	-10.0414
▁feed	-10.0418
抵	-10.0422
▁carry	-10.0424
si	-10.0425
▁dream	-10.0426
捕	-10.0428
SP	-10.0433
▁serious	-10.0434
▁answer	-10.0438
▁developing	-10.0438
rus	-10.0439
地球	-10.0439
▁sex	-10.044
介	-10.0448
▁investment	-10.0449
tail	-10.0455
规	-10.0461
一年	-10.0464
规定	-10.0464
最高	-10.0468
圈	-10.0473
▁electric	-10.0481
▁Dr	-10.0483
▁tu	-10.0485
添加	-10.0486
残	-10.0487
▁poor	-10.0491
▁kinds	-10.0494
飞机	-10.0496
战争	-10.0502
▁science	-10.0503
ms	-10.0506
丰富	-10.0508
26	-10.0509
相比	-10.0511
▁factor	-10.0512
▁collect	-10.0512
35	-10.0513
炉	-10.0513
▁true	-10.0516
▁bio	-10.052
科技	-10.0523
pose	-10.0529
服务器	-10.0529
私	-10.053
堂	-10.0533
状况	-10.0543
羊	-10.0545
胡	-10.0546
▁compared	-10.0552
▁sent	-10.0555
▁count	-10.0556
▁perfect	-10.056
▁behind	-10.0566
相同	-10.0574
鸟	-10.0575
枪	-10.0577
促进	-10.0577
▁drink	-10.0579
▁added	-10.0582
▁hair	-10.0588
德国	-10.0588
wo	-10.059
限制	-10.0591
鉴	-10.0591
洞	-10.0595
污染	-10.0603
ID	-10.0605
▁reach	-10.0607
verse	-10.0608
▁feeling	-10.0612
自我	-10.0613
fect	-10.0617
▁reform	-10.0618
教授	-10.0619
乘	-10.062
亿美元	-10.062
eration	-10.0623
ied	-10.0623
▁phone	-10.0624
签	-10.0626
智	-10.0626
烧	-10.0626
▁pain	-10.0639
▁cancer	-10.064
▁efficiency	-10.0642
▁levels	-10.0645
▁acc	-10.0649
▁professional	-10.0651
▁phase	-10.0652
temp	-10.0652
有着	-10.0652
ney	-10.0652
des	-10.0657
都有	-10.0662
▁deliver	-10.0665
联合	-10.0674
暗	-10.0676
▁flower	-10.0676
pping	-10.0685
2006	-10.0686
▁groups	-10.0688
point	-10.0688
凝	-10.0691
啊	-10.0699
▁element	-10.07
伸	-10.0701
▁ways	-10.0704
照片	-10.0705
▁ball	-10.0707
tur	-10.0709
▁task	-10.0711
的一种	-10.0714
欢迎	-10.0714
vel	-10.0714
您的	-10.0718
▁cho	-10.0719
▁Ge	-10.0723
▁station	-10.0725
改进	-10.0727
贴	-10.0731
▁physical	-10.0733
▁para	-10.0738
大约	-10.074
公共	-10.0742
▁sales	-10.075
拍	-10.0753
back	-10.0753
以后	-10.0755
的设计	-10.076
绿	-10.0768
py	-10.0772
陈	-10.0774
▁pen	-10.0775
▁safe	-10.0776
后的	-10.0776
恢复	-10.0779
医院	-10.0781
潮	-10.0782
Many	-10.0787
‘	-10.0788
▁realize	-10.079
划	-10.0797
▁learning	-10.0798
合成	-10.0802
豆	-10.0805
趣	-10.0822
▁chemical	-10.0822
详细	-10.0824
▁detect	-10.0825
屋	-10.0825
永	-10.0827
ugh	-10.083
▁met	-10.0833
用来	-10.0839
者的	-10.084
▁president	-10.084
谷	-10.0841
▁progress	-10.0841
文学	-10.0847
PS	-10.0849
亿	-10.085
▁sample	-10.0851
适应	-10.0852
都会	-10.0852
ji	-10.0853
父亲	-10.0858
柱	-10.0858
民族	-10.086
▁nothing	-10.0861
碎	-10.0861
▁server	-10.0877
▁gain	-10.0879
是由	-10.0883
nce	-10.0884
人口	-10.0887
ivity	-10.0887
▁Man	-10.0891
Even	-10.0892
严	-10.0892
▁Yu	-10.09
内部	-10.0904
pha	-10.0906
填	-10.0909
lip	-10.0916
▁longer	-10.0916
bra	-10.0921
漫	-10.0927
纽约	-10.0928
另一个	-10.0928
▁news	-10.0932
▁expression	-10.0936
▁shown	-10.094
徒	-10.0943
广告	-10.0952
▁running	-10.0952
动态	-10.0953
Of	-10.0953
范	-10.0954
▁Or	-10.0955
▁Ka	-10.0957
▁north	-10.0964
的原因	-10.0964
First	-10.0973
平衡	-10.0976
▁connect	-10.0977
▁pla	-10.0978
招	-10.0978
陆	-10.0981
阶	-10.0984
▁however	-10.0995
功	-10.0995
母亲	-10.0996
▁supply	-10.0996
▁box	-10.1005
▁hands	-10.1007
cor	-10.1011
▁central	-10.1015
协	-10.1023
▁train	-10.1023
团队	-10.1024
tive	-10.1026
▁morning	-10.1027
▁Hong	-10.1027
生态	-10.1028
Li	-10.1032
▁limit	-10.1038
锁	-10.1038
灭	-10.1038
右	-10.104
ked	-10.104
现实	-10.1045
组合	-10.1047
盛	-10.1051
末	-10.1052
▁Cha	-10.1054
醇	-10.1059
▁Shanghai	-10.1065
▁exist	-10.1075
27	-10.1076
▁eye	-10.1078
闭	-10.1081
▁brand	-10.1082
▁bed	-10.1083
ham	-10.1085
▁positive	-10.1087
▁treat	-10.1088
一只	-10.109
▁City	-10.1092
▁police	-10.1092
▁correct	-10.1094
▁This	-10.1096
角度	-10.1096
蓝	-10.1096
▁thousand	-10.1102
这次	-10.1109
▁fine	-10.1111
▁shape	-10.1121
▁agent	-10.113
帮	-10.113
危险	-10.1132
购买	-10.1134
鼠	-10.1145
玛	-10.1148
系列	-10.1154
2005	-10.1156
oxid	-10.1158
原则	-10.1159
▁command	-10.1159
在中国	-10.116
char	-10.1162
ley	-10.1162
的事情	-10.1166
▁write	-10.1167
▁necessary	-10.1168
在一起	-10.1169
▁plate	-10.117
力量	-10.1172
在一个	-10.1174
▁users	-10.1181
尚	-10.1181
创新	-10.1183
织	-10.1186
肺	-10.1186
关键	-10.1188
▁party	-10.1189
浪	-10.1193
这位	-10.1195
▁roll	-10.1199
赞	-10.12
▁lost	-10.1202
在这个	-10.1204
这项	-10.1205
符	-10.1206
发布	-10.1206
▁direction	-10.121
浆	-10.1218
喝	-10.122
meter	-10.1222
机械	-10.1227
gan	-10.1228
▁please	-10.1231
▁boy	-10.1232
▁finish	-10.1238
朗	-10.1239
▁mountain	-10.1243
敏	-10.1243
直到	-10.1245
pat	-10.1245
24	-10.1257
▁thr	-10.1257
确保	-10.1257
刺	-10.1258
▁warm	-10.126
▁serve	-10.126
空气	-10.1262
一份	-10.1265
▁def	-10.1274
输	-10.1275
While	-10.1278
巨	-10.1279
▁mod	-10.128
县	-10.1283
强度	-10.1289
▁described	-10.1294
女人	-10.1295
▁fell	-10.1295
举行	-10.1298
zo	-10.13
ST	-10.13
全国	-10.1301
积极	-10.1302
跨	-10.1304
▁fruit	-10.1306
▁pick	-10.1307
▁require	-10.1309
殖	-10.1311
拜	-10.1312
▁rule	-10.1315
oma	-10.1317
▁hit	-10.132
基金	-10.1322
▁pur	-10.1323
▁novel	-10.1324
潜	-10.1325
▁screen	-10.1333
▁gave	-10.1337
适合	-10.1346
▁military	-10.1348
▁drive	-10.135
▁mid	-10.1357
沃	-10.1357
▁rain	-10.1359
▁version	-10.1363
cup	-10.137
▁getting	-10.137
Pro	-10.1374
败	-10.1376
▁itself	-10.1381
▁held	-10.1381
1)	-10.1385
▁quite	-10.1389
▁provided	-10.1396
产业	-10.1397
2000	-10.1397
▁figure	-10.1402
▁rise	-10.1404
▁hear	-10.1406
汤	-10.141
▁college	-10.1421
指标	-10.1422
▁meaning	-10.1423
over	-10.1424
▁happen	-10.1425
▁gu	-10.1432
核心	-10.1433
职业	-10.1441
▁community	-10.1447
经营	-10.1453
van	-10.1453
▁fan	-10.1454
作者	-10.1457
交通	-10.1457
▁famous	-10.1458
▁dark	-10.1458
就可以	-10.1459
--	-10.1461
▁conf	-10.1461
港	-10.1465
▁expert	-10.1465
普通	-10.1467
那里	-10.1469
▁tree	-10.1473
rb	-10.1475
科学家	-10.1476
宜	-10.1479
▁Lu	-10.1483
▁geo	-10.1488
▁active	-10.1493
阴	-10.1499
▁sleep	-10.1501
▁hospital	-10.1504
▁ancient	-10.1517
袋	-10.1523
za	-10.1524
▁claim	-10.1526
病人	-10.1528
▁track	-10.1529
旁	-10.153
▁Fi	-10.1535
统计	-10.1536
附近	-10.1536
▁former	-10.1543
途	-10.1544
?。	-10.1544
视频	-10.1545
▁themselves	-10.1546
▁glass	-10.1546
▁contact	-10.1549
官员	-10.1553
▁save	-10.1556
吸引	-10.1558
危机	-10.1559
规则	-10.156
▁himself	-10.1564
▁south	-10.1565
中国的	-10.1568
▁civil	-10.1568
▁fun	-10.1569
ement	-10.1569
背景	-10.157
员工	-10.1586
责任	-10.1588
可靠	-10.1593
评估	-10.1596
▁couple	-10.1598
酒店	-10.1606
属于	-10.1607
手机	-10.1615
▁11	-10.1617
zhou	-10.1617
启	-10.1618
lish	-10.1619
Comp	-10.1619
皇	-10.162
的生活	-10.1622
不知道	-10.1625
▁evaluate	-10.1631
浮	-10.1634
▁Ne	-10.1635
活性	-10.1641
ek	-10.1641
▁window	-10.1642
▁broad	-10.1642
伟	-10.1643
▁dog	-10.1644
▁join	-10.1644
趋势	-10.1646
▁created	-10.165
▁shi	-10.1658
儿子	-10.1659
▁Africa	-10.1662
男人	-10.1665
fr	-10.1666
People	-10.1667
rous	-10.1667
▁Cl	-10.1673
ony	-10.1675
▁protection	-10.1676
▁But	-10.1676
堆	-10.1677
▁host	-10.1681
▁fat	-10.1682
▁error	-10.1684
▁final	-10.1685
▁activities	-10.1689
▁medical	-10.1696
ved	-10.17
▁address	-10.1702
事情	-10.1703
变成	-10.1705
指数	-10.1708
▁manager	-10.1712
胎	-10.1712
ya	-10.1715
▁river	-10.1721
重点	-10.1722
▁members	-10.1724
45	-10.1726
有一	-10.1729
▁quickly	-10.1743
▁exchange	-10.1745
调整	-10.1747
▁chi	-10.1748
Don	-10.1753
配置	-10.1753
观点	-10.1753
▁sn	-10.1755
▁summer	-10.1758
ina	-10.176
▁rapid	-10.1761
玻璃	-10.1763
▁express	-10.1763
▁16	-10.1769
3%	-10.1772
齐	-10.1783
奥巴马	-10.1783
▁obtained	-10.1787
ches	-10.1788
寻找	-10.1793
腔	-10.1793
目的探讨	-10.1795
▁someone	-10.1796
领导	-10.1797
大型	-10.1799
▁print	-10.1801
▁Tra	-10.1801
▁unique	-10.1802
▁dry	-10.1808
▁parents	-10.181
触	-10.1812
▁population	-10.1813
rin	-10.1814
论文	-10.1815
也有	-10.1816
▁either	-10.1818
Po	-10.1819
rc	-10.1819
面临	-10.1819
▁client	-10.183
相互	-10.1833
32	-10.1836
▁bra	-10.184
dent	-10.184
▁predict	-10.1841
免疫	-10.1842
▁wood	-10.1844
▁100	-10.1845
rank	-10.1848
处于	-10.1851
ians	-10.1855
品牌	-10.1856
只要	-10.1856
▁hu	-10.1859
▁entire	-10.186
where	-10.1863
土地	-10.1867
▁feature	-10.1867
多少	-10.1872
▁soft	-10.1873
▁memory	-10.1878
此外	-10.1879
数据库	-10.1884
震	-10.1885
▁everything	-10.1887
梁	-10.1888
dom	-10.1889
香港	-10.1892
地震	-10.1893
唯一	-10.1896
pre	-10.1897
▁epi	-10.1898
新型	-10.1899
sy	-10.1902
CA	-10.191
开放	-10.192
nan	-10.1926
▁sal	-10.1927
ators	-10.1928
▁protein	-10.193
菲	-10.193
▁core	-10.1938
放在	-10.1939
▁reaction	-10.194
试图	-10.1943
加强	-10.1943
塑	-10.1945
世界上	-10.1948
兵	-10.1951
Since	-10.1958
▁choice	-10.1962
▁exp	-10.1964
▁log	-10.1966
▁promote	-10.1968
斯特	-10.1972
娜	-10.1973
300	-10.1982
ari	-10.1988
▁takes	-10.199
▁earth	-10.1991
▁enterprise	-10.1992
乙	-10.1999
▁minutes	-10.2001
灾	-10.2005
AS	-10.2011
Se	-10.2018
▁000	-10.2022
▁previous	-10.2027
ju	-10.203
委	-10.2031
▁includes	-10.2038
▁cu	-10.2041
▁measures	-10.2041
能量	-10.2042
责	-10.2044
grade	-10.2045
效应	-10.2048
她们	-10.205
rew	-10.2051
生成	-10.2052
早期	-10.2059
蛋	-10.2062
小说	-10.2063
▁century	-10.2068
▁technical	-10.2069
不到	-10.207
▁blue	-10.2078
▁street	-10.2078
偶	-10.2079
▁ac	-10.2079
摆	-10.208
▁carbon	-10.208
父母	-10.208
▁cool	-10.2082
▁President	-10.2083
复合	-10.2084
资金	-10.2085
onic	-10.209
出口	-10.2095
▁private	-10.2097
▁Si	-10.2099
ino	-10.2099
▁aim	-10.2101
困难	-10.2102
osis	-10.211
00	-10.2117
一场	-10.2118
念	-10.212
▁coal	-10.2123
播	-10.2128
▁ill	-10.2129
▁maintain	-10.2131
年轻	-10.2132
慢	-10.2133
当前	-10.2133
▁happy	-10.2135
依据	-10.2139
▁XML	-10.2141
重要的	-10.2142
▁York	-10.2148
优势	-10.2149
▁regard	-10.2153
CP	-10.2155
十年	-10.2156
平台	-10.2156
委员会	-10.2156
访	-10.2158
赫	-10.2158
ole	-10.2162
▁request	-10.2165
gram	-10.2166
▁vehicle	-10.2167
▁online	-10.2168
AC	-10.217
规划	-10.2175
ock	-10.2182
律	-10.2184
▁refer	-10.219
声音	-10.2191
▁court	-10.2191
▁obvious	-10.2192
▁apply	-10.2196
氏	-10.22
输入	-10.2201
转换	-10.2203
鞋	-10.2206
▁electro	-10.2208
怎样	-10.2211
▁writing	-10.2216
▁improved	-10.2221
]	-10.2224
繁	-10.2232
▁coming	-10.2235
▁introduces	-10.2236
展示	-10.2238
而言	-10.2239
▁term	-10.224
▁dead	-10.224
▁rec	-10.2243
忙	-10.2243
▁village	-10.2246
▁partner	-10.2247
▁needed	-10.2251
别人	-10.2252
oth	-10.2254
OS	-10.2259
pit	-10.2266
▁enhance	-10.2269
钻	-10.2269
否	-10.227
尊	-10.2272
▁weak	-10.2274
挑战	-10.228
乌	-10.2282
连续	-10.2286
准确	-10.2289
mar	-10.2291
分离	-10.2292
ene	-10.2293
▁fit	-10.2293
▁depend	-10.2298
pen	-10.23
Every	-10.2301
毁	-10.2301
齿	-10.2307
体育	-10.2316
战略	-10.232
物理	-10.2322
建立了	-10.2325
Pa	-10.2326
记者	-10.2327
狂	-10.2329
▁industrial	-10.233
租	-10.2345
也会	-10.235
铜	-10.235
▁brought	-10.2352
▁typical	-10.2352
固定	-10.2352
[	-10.2356
▁carried	-10.2356
ising	-10.2366
理想	-10.2367
omy	-10.2369
也可以	-10.2369
▁attract	-10.2371
ties	-10.2372
扬	-10.2372
nn	-10.2372
▁si	-10.2372
Most	-10.2374
net	-10.2375
▁resistance	-10.2377
融	-10.2377
▁strategy	-10.238
意识	-10.238
抑制	-10.2385
洋	-10.2385
的基础上	-10.2389
实际上	-10.2391
于是	-10.2394
IT	-10.2396
▁Vi	-10.2403
▁trend	-10.2404
一致	-10.2404
▁lives	-10.2406
read	-10.2409
永远	-10.2411
▁prop	-10.2413
▁directly	-10.2413
▁remember	-10.2417
▁analyse	-10.2418
shi	-10.2419
▁reference	-10.2425
离开	-10.2425
肯	-10.2429
tech	-10.243
igh	-10.2432
皮肤	-10.2436
存储	-10.2441
▁multiple	-10.2444
▁wife	-10.2446
▁books	-10.2449
▁round	-10.245
禁	-10.2454
破坏	-10.2454
角色	-10.2455
▁agree	-10.2457
▁separate	-10.2458
top	-10.2461
大小	-10.2467
ese	-10.2467
▁prices	-10.2468
duct	-10.2474
▁cultural	-10.2474
桌	-10.2474
can	-10.2474
博士	-10.2474
▁particular	-10.2476
dis	-10.2479
闪	-10.248
tric	-10.2484
集中	-10.2486
构成	-10.2492
▁movement	-10.2493
脂	-10.2493
指导	-10.2508
提取	-10.2509
▁parameters	-10.2509
搜索	-10.2515
▁generation	-10.2517
累	-10.252
看起来	-10.252
并没有	-10.2522
▁fear	-10.2523
late	-10.2523
横	-10.2523
▁National	-10.2525
做出	-10.253
▁trying	-10.2531
囊	-10.2532
▁option	-10.2534
▁scale	-10.2535
▁board	-10.2536
在于	-10.2537
▁implement	-10.2538
年代	-10.2539
的事	-10.2542
▁root	-10.2543
▁describe	-10.2543
Therefore	-10.2544
它是	-10.2548
珠	-10.255
29	-10.2551
只能	-10.2552
我在	-10.2552
8%	-10.2552
涉及	-10.2554
腹	-10.2555
▁widely	-10.2555
似	-10.2556
▁database	-10.2559
stream	-10.2563
能源	-10.2564
▁practical	-10.2564
▁begin	-10.2564
棒	-10.2567
冬	-10.2568
long	-10.257
焦	-10.2573
隆	-10.2574
7%	-10.2575
和其他	-10.2576
▁easily	-10.2577
特定	-10.2578
旅	-10.2579
魔	-10.2585
可能是	-10.2586
ER	-10.2588
BC	-10.259
版本	-10.259
▁drop	-10.259
▁suffer	-10.2591
饰	-10.2596
钟	-10.2596
nate	-10.2596
ential	-10.2596
良好的	-10.2598
▁organ	-10.2599
▁reveal	-10.2607
▁adjust	-10.2612
▁seems	-10.2617
让你	-10.2617
type	-10.2619
距离	-10.262
▁fail	-10.262
遭	-10.2621
q	-10.2624
▁decrease	-10.2627
tone	-10.2627
是因为	-10.263
▁status	-10.263
rough	-10.263
col	-10.2632
▁Mu	-10.2633
腺	-10.264
▁probably	-10.2644
粗	-10.2646
▁terms	-10.2648
▁joint	-10.2651
▁anything	-10.2654
med	-10.2655
荣	-10.2658
怕	-10.266
▁sto	-10.266
▁credit	-10.2662
对其	-10.2667
方面的	-10.2667
保险	-10.267
洲	-10.2677
情况下	-10.268
▁Kong	-10.268
▁Europe	-10.2686
uring	-10.2687
DS	-10.2687
▁ensure	-10.2687
壳	-10.2691
▁movie	-10.2696
暖	-10.2713
▁species	-10.2715
til	-10.2716
app	-10.2716
▁die	-10.2718
2%	-10.272
1%	-10.2727
▁challenge	-10.273
教师	-10.2735
▁pipe	-10.2743
▁event	-10.2748
休	-10.275
▁legal	-10.2763
扎	-10.2767
tting	-10.2774
胆	-10.2781
▁spread	-10.2782
SS	-10.2783
comp	-10.2786
▁heavy	-10.2786
▁gives	-10.2787
回到	-10.2792
wise	-10.2792
循环	-10.2792
▁simply	-10.2793
itis	-10.2794
water	-10.2796
全部	-10.28
接触	-10.2802
position	-10.2809
2004	-10.2813
▁sand	-10.2814
单位	-10.2814
京	-10.2815
邻	-10.2816
翻	-10.2818
农业	-10.2826
充满	-10.2831
构建	-10.2834
的数据	-10.2844
▁required	-10.2846
清楚	-10.2848
敌	-10.2854
地位	-10.2855
泡	-10.2856
肿瘤	-10.2863
的基本	-10.2864
绘	-10.2865
ogen	-10.287
或是	-10.2873
ov	-10.2879
流行	-10.2888
▁thinking	-10.2888
缝	-10.2889
ution	-10.289
▁lack	-10.2892
让我	-10.2894
2010	-10.2896
血管	-10.2896
呼	-10.2904
▁survey	-10.2905
▁press	-10.2906
▁wish	-10.2912
ana	-10.2916
▁chance	-10.2922
▁expected	-10.2925
的变化	-10.2926
......	-10.2926
▁She	-10.2927
制备	-10.2934
▁simulation	-10.2935
ced	-10.2939
球员	-10.294
▁saying	-10.2942
有机	-10.2942
硫	-10.2944
▁workers	-10.2946
应当	-10.2947
lum	-10.2954
▁looked	-10.2955
▁hundred	-10.2955
资产	-10.296
刑	-10.2962
▁Fa	-10.2962
截	-10.2965
免	-10.2966
申请	-10.2967
▁liquid	-10.2969
驱动	-10.2972
妇女	-10.2977
高度	-10.2984
▁issues	-10.2987
▁whose	-10.2992
有限公司	-10.2995
再次	-10.2998
很快	-10.2999
▁letter	-10.3003
▁customers	-10.3005
▁procedure	-10.3013
▁floor	-10.3017
多个	-10.3017
▁official	-10.3018
霍	-10.3018
▁recently	-10.3021
▁stability	-10.3026
予	-10.3027
ctic	-10.3027
愿意	-10.3027
cin	-10.3031
给出了	-10.3036
yn	-10.3039
▁weeks	-10.3042
DNA	-10.3045
▁waste	-10.3049
避	-10.3049
通过对	-10.3056
▁respect	-10.3056
▁guide	-10.3056
逊	-10.3057
▁spring	-10.306
▁testing	-10.306
气候	-10.3063
cus	-10.3064
参考	-10.307
▁tool	-10.3072
▁East	-10.3072
医疗	-10.3073
▁Fu	-10.3074
hai	-10.3079
▁bri	-10.3081
攻击	-10.3084
迅速	-10.3087
发表	-10.3088
反对	-10.3089
▁consumer	-10.3091
▁cast	-10.3091
▁pull	-10.3092
逃	-10.3098
柔	-10.3101
女孩	-10.3102
ash	-10.3103
▁functions	-10.3105
▁uses	-10.311
误	-10.3111
不再	-10.3113
▁mini	-10.3117
▁balance	-10.3117
让我们	-10.3119
约翰	-10.3119
acy	-10.3121
▁capacity	-10.3125
石油	-10.3125
tract	-10.3127
tance	-10.3131
人士	-10.3136
win	-10.3138
▁elements	-10.3143
老师	-10.3146
▁War	-10.3146
全面	-10.3148
pack	-10.3168
▁date	-10.3172
多种	-10.3177
识	-10.3178
担心	-10.3181
▁div	-10.3183
兹	-10.319
颜色	-10.3193
▁launch	-10.3193
▁considered	-10.3195
当你	-10.3199
俄罗斯	-10.3201
▁wine	-10.3202
困	-10.3205
▁harm	-10.3211
▁ratio	-10.3212
▁construct	-10.3216
95	-10.3228
▁kill	-10.3231
剪	-10.3238
▁yourself	-10.3239
▁digital	-10.3242
键	-10.3243
▁Ji	-10.3246
堡	-10.3246
▁50	-10.3246
att	-10.3249
▁engineering	-10.3252
猫	-10.3255
监	-10.3256
▁fresh	-10.3262
第一个	-10.3266
▁spot	-10.3267
肾	-10.3269
胸	-10.3275
灌	-10.3279
增强	-10.3281
ease	-10.3282
2011	-10.3286
▁den	-10.3291
的关键	-10.3296
年前	-10.33
▁reading	-10.3302
▁dollar	-10.3303
面对	-10.3306
足够	-10.3306
ically	-10.3311
特别是	-10.3311
▁2010	-10.3313
CE	-10.3314
发展的	-10.332
第一次	-10.3328
iff	-10.3329
▁edit	-10.3329
离子	-10.333
MP	-10.3332
上升	-10.3337
▁medicine	-10.3339
眼睛	-10.3339
▁burn	-10.3342
mination	-10.3345
尖	-10.3346
test	-10.3347
Well	-10.3348
▁failure	-10.3349
Although	-10.3351
MA	-10.3352
▁40	-10.3353
祖	-10.336
午	-10.3361
▁province	-10.3361
社区	-10.3364
充分	-10.337
莉	-10.3371
是什么	-10.3372
悲	-10.3374
▁wanted	-10.3375
费用	-10.3375
▁rather	-10.338
以下	-10.3385
▁Japanese	-10.3387
▁TV	-10.3389
略	-10.3394
在美国	-10.3394
▁sort	-10.3399
身上	-10.3401
一段	-10.3404
▁push	-10.3409
▁received	-10.3412
风格	-10.3414
尝试	-10.3414
put	-10.3415
阅读	-10.3415
▁turned	-10.3416
ok	-10.3416
寻	-10.3418
最好的	-10.3422
6%	-10.3428
际	-10.3432
2008	-10.3432
▁iron	-10.3434
iti	-10.3438
ense	-10.3442
▁extend	-10.3442
西方	-10.3442
▁John	-10.3443
▁2008	-10.3444
验证	-10.3448
bar	-10.3449
▁primary	-10.3451
tory	-10.3456
▁foot	-10.3456
多年	-10.3457
spec	-10.3457
bor	-10.3457
▁master	-10.3458
乔	-10.3458
可是	-10.3461
主题	-10.3462
利亚	-10.3464
▁leading	-10.3467
▁else	-10.3468
elect	-10.3483
最新	-10.3485
有效的	-10.3486
土壤	-10.3488
苹果	-10.3489
疗效	-10.3491
▁Bar	-10.3494
▁adapt	-10.3495
交流	-10.3496
▁requirements	-10.3501
亚洲	-10.3504
west	-10.3506
淡	-10.3506
在这里	-10.3509
挂	-10.3509
执	-10.3512
▁replace	-10.3513
▁equal	-10.3514
▁touch	-10.3517
▁largest	-10.3526
闻	-10.3527
▁meta	-10.353
af	-10.3534
数学	-10.3536
成分	-10.3538
▁domestic	-10.3539
▁receive	-10.3543
抓	-10.3545
天然	-10.3546
▁king	-10.3549
夹	-10.355
妈妈	-10.3551
条件下	-10.3558
▁manage	-10.3563
▁filter	-10.3568
▁fiber	-10.3573
▁output	-10.3577
Me	-10.3579
▁select	-10.3579
▁birth	-10.3582
▁perform	-10.3584
年龄	-10.3584
疗	-10.3586
▁seed	-10.3587
▁determine	-10.3587
▁peace	-10.3588
hood	-10.359
燃	-10.3592
range	-10.3594
▁seven	-10.3594
▁department	-10.3595
手段	-10.3599
▁measure	-10.3606
谓	-10.3606
▁song	-10.3607
▁Je	-10.3608
档	-10.3609
▁doctor	-10.361
▁Ni	-10.3611
bul	-10.3616
▁fair	-10.3617
▁sum	-10.3618
field	-10.3621
▁discuss	-10.3621
▁forest	-10.3622
形态	-10.3625
摇	-10.3626
▁They	-10.3632
动力	-10.3633
ched	-10.3635
▁pal	-10.3637
Google	-10.3637
▁14	-10.3638
虚	-10.3638
▁remove	-10.364
ulating	-10.3642
湾	-10.3651
Di	-10.3651
▁huge	-10.3654
命令	-10.3655
▁European	-10.3656
传播	-10.3659
board	-10.3661
响	-10.3662
lation	-10.3663
▁13	-10.3664
ook	-10.3666
每年	-10.3667
成了	-10.367
▁existing	-10.3673
LE	-10.3673
将在	-10.3675
▁Du	-10.3678
tribu	-10.3679
cation	-10.368
▁member	-10.3682
▁choose	-10.3682
▁nearly	-10.3682
营养	-10.3685
▁regular	-10.3686
得到了	-10.3687
del	-10.3689
晚上	-10.3689
嘴	-10.3689
IN	-10.3693
汽	-10.3694
▁fly	-10.3696
▁hotel	-10.37
▁cloud	-10.3702
▁female	-10.3703
right	-10.3703
识别	-10.3705
答	-10.3705
▁wh	-10.371
▁pump	-10.371
恒	-10.3714
level	-10.3721
75	-10.3725
▁voice	-10.3727
割	-10.3738
gra	-10.3739
▁produced	-10.3745
4%	-10.3747
▁San	-10.3747
▁rules	-10.375
鼻	-10.3751
▁Wa	-10.3755
Un	-10.376
习	-10.3763
▁solid	-10.3766
竟	-10.3767
看见	-10.377
▁student	-10.3774
2009	-10.3776
▁evidence	-10.3776
▁doesn	-10.3777
给我	-10.378
瓶	-10.3783
▁worth	-10.3785
缘	-10.3794
伦敦	-10.3794
典型	-10.3794
▁thick	-10.3795
▁heard	-10.3798
尿	-10.3801
释	-10.3805
甘	-10.3812
不足	-10.3813
IP	-10.3815
▁frequency	-10.3815
腿	-10.3816
▁release	-10.3817
根本	-10.3817
During	-10.3821
辛	-10.3823
估计	-10.3824
规律	-10.3825
cut	-10.3826
▁growing	-10.3827
顾	-10.3831
川	-10.3832
析	-10.3834
宾	-10.3834
▁location	-10.3836
▁.	-10.3837
▁listen	-10.3838
事实	-10.3838
▁fill	-10.3839
▁estimate	-10.3843
▁staff	-10.3843
胃	-10.3844
▁below	-10.3848
CS	-10.3848
▁sing	-10.3853
构造	-10.3854
cular	-10.3864
▁located	-10.3864
真正	-10.3865
稳	-10.3867
符合	-10.3867
oph	-10.3868
电路	-10.3871
▁River	-10.3874
▁models	-10.3875
▁counter	-10.3876
▁occur	-10.3878
▁17	-10.3881
有可能	-10.3881
雇	-10.3885
▁advanced	-10.3885
▁characteristic	-10.3891
有时	-10.3893
赶	-10.3895
束	-10.3897
幕	-10.3903
▁pan	-10.3904
耗	-10.3906
▁Pla	-10.3906
▁Obama	-10.3908
▁sometimes	-10.391
▁researchers	-10.3918
损伤	-10.3918
幼	-10.3923
▁urban	-10.3925
▁internal	-10.3928
▁platform	-10.393
▁circuit	-10.3931
ky	-10.3937
▁stone	-10.3938
▁measurement	-10.3939
反映	-10.3949
一系列	-10.3952
migr	-10.3953
传统的	-10.3954
▁Ri	-10.3954
合同	-10.3956
唐	-10.3956
听到	-10.3962
方便	-10.3965
尼亚	-10.3965
适用于	-10.3966
通信	-10.3969
▁bright	-10.3973
难以	-10.3974
▁extra	-10.3976
Ro	-10.3978
按照	-10.3984
飞行	-10.3986
房间	-10.3987
其实	-10.3988
▁channel	-10.3992
Finally	-10.3996
yo	-10.3997
紫	-10.3997
▁fer	-10.4
▁interface	-10.4001
▁officials	-10.4003
普遍	-10.4003
▁India	-10.4004
▁initial	-10.4006
宣布	-10.4013
来到	-10.4013
整体	-10.4017
▁switch	-10.4021
▁components	-10.4022
冒	-10.4024
孕	-10.4027
duce	-10.4027
Let	-10.403
rating	-10.4033
冠	-10.4036
▁export	-10.4036
▁wire	-10.4038
洁	-10.4038
高速	-10.4039
瘤	-10.404
上帝	-10.4046
Ex	-10.4047
真实	-10.4049
看看	-10.405
qua	-10.4051
珍	-10.4053
▁bone	-10.4054
▁Q	-10.4054
Just	-10.4056
出版	-10.4058
Ca	-10.4059
撞	-10.406
ko	-10.4061
这就是	-10.4062
uch	-10.4065
意思	-10.4076
秋	-10.4078
一个人	-10.408
输出	-10.4082
里面	-10.4082
▁combination	-10.4083
▁teacher	-10.4086
▁zone	-10.4088
健	-10.4088
teen	-10.409
怪	-10.4098
PE	-10.4098
ened	-10.4101
的结果	-10.4105
▁changed	-10.4107
▁Asia	-10.4107
消费者	-10.4109
激光	-10.4111
我是	-10.4111
▁everyone	-10.4111
script	-10.4111
itude	-10.4112
经理	-10.4115
仿真	-10.4122
猪	-10.4126
利益	-10.4135
坚持	-10.4135
▁goes	-10.4136
周围	-10.414
研	-10.4142
IC	-10.4145
▁Xi	-10.4146
▁investigated	-10.4152
bro	-10.4156
▁enterprises	-10.4157
球队	-10.4157
尤其是	-10.4159
▁wrong	-10.4162
▁led	-10.4166
自身	-10.4167
事实上	-10.4173
ET	-10.4179
竞	-10.418
zi	-10.418
坦	-10.4186
▁plastic	-10.4189
斗	-10.4195
发出	-10.4198
促	-10.42
滚	-10.42
威胁	-10.4201
深入	-10.4201
漏	-10.4203
vari	-10.4207
后来	-10.4212
▁length	-10.4216
发挥	-10.4216
31	-10.422
迟	-10.4221
豪	-10.4223
寄	-10.4228
辆	-10.423
▁scene	-10.423
咖啡	-10.4237
坡	-10.4237
▁scientific	-10.4246
航空	-10.4247
性质	-10.4249
AD	-10.4256
▁experimental	-10.4259
▁nu	-10.4264
▁25	-10.4266
▁concrete	-10.4269
▁competition	-10.427
池	-10.427
▁achieve	-10.4276
的方式	-10.4278
规模	-10.4278
创作	-10.4289
失去	-10.4291
酯	-10.4293
▁invest	-10.4296
距	-10.43
方程	-10.43
途径	-10.4303
扩展	-10.4306
愈	-10.4309
本身	-10.4309
犹	-10.4312
串	-10.4313
奏	-10.4318
公园	-10.4319
险	-10.4319
Two	-10.4321
▁plants	-10.4323
▁yield	-10.4324
Why	-10.4325
常见	-10.4327
▁semi	-10.4328
醒	-10.433
Th	-10.4332
▁foundation	-10.4334
▁observe	-10.4339
你会	-10.4342
▁Han	-10.4342
▁compound	-10.435
take	-10.435
▁bridge	-10.4352
值得	-10.4352
▁essential	-10.4354
房子	-10.4358
讨论了	-10.4359
▁highly	-10.4361
授	-10.4363
▁Ya	-10.4364
▁sup	-10.437
LA	-10.4372
▁environmental	-10.4373
posed	-10.4378
▁combined	-10.4378
确实	-10.4379
正是	-10.4381
36	-10.4386
▁ice	-10.4388
快乐	-10.4389
续	-10.4394
▁constant	-10.4395
▁Per	-10.4396
欢	-10.4404
▁formation	-10.4406
来源	-10.4409
肯定	-10.4409
巨大的	-10.4418
资本	-10.4418
▁lines	-10.4419
▁Can	-10.4421
▁threat	-10.4422
定位	-10.4426
▁2009	-10.443
搭	-10.4431
缺乏	-10.4431
让人	-10.4435
▁Internet	-10.4436
▁connection	-10.4437
俄	-10.4437
▁motor	-10.4444
往往	-10.4445
总结	-10.445
逐渐	-10.4453
▁sin	-10.4454
上面	-10.4457
▁literature	-10.4462
的特点	-10.4467
弯	-10.4469
▁custom	-10.447
斜	-10.4474
尘	-10.4476
▁volume	-10.4476
周期	-10.4476
了一种	-10.4479
word	-10.448
▁confirm	-10.4481
EM	-10.4482
免费	-10.4484
▁Ti	-10.4485
▁dress	-10.4486
▁seem	-10.449
Please	-10.4491
▁Gra	-10.4492
▁suitable	-10.4499
2003	-10.4499
呈	-10.45
▁fuel	-10.4501
甜	-10.4502
▁attempt	-10.4505
替	-10.4507
设施	-10.4507
弄	-10.4508
▁exercise	-10.4509
High	-10.4509
渐	-10.4513
▁male	-10.4514
▁crisis	-10.4515
如今	-10.4515
key	-10.4516
商品	-10.4518
医学	-10.4519
敬	-10.4521
应用于	-10.4524
办法	-10.453
ica	-10.4532
▁written	-10.4533
▁integr	-10.4542
完整	-10.4544
翻译	-10.4544
cious	-10.4546
流程	-10.4553
蒸	-10.4556
打开	-10.4559
pon	-10.456
bel	-10.4569
庄	-10.4569
CC	-10.4569
▁recommend	-10.457
▁eight	-10.457
例子	-10.4571
滤	-10.4571
迁	-10.4573
Research	-10.4576
▁brother	-10.4577
▁Qu	-10.4578
突然	-10.4579
DA	-10.4579
▁generate	-10.4581
绿色	-10.4582
▁profit	-10.4586
▁proper	-10.4592
诸	-10.4592
植	-10.4594
▁medium	-10.4603
现有	-10.4604
activ	-10.4613
分类	-10.4615
lex	-10.4615
分为	-10.4616
gro	-10.4617
都在	-10.462
bal	-10.462
Sp	-10.4621
tical	-10.4621
cture	-10.4624
▁questions	-10.4624
▁prefer	-10.4625
▁net	-10.4629
谐	-10.463
▁finally	-10.4637
▁traffic	-10.4637
妹	-10.4639
related	-10.4641
▁fault	-10.4645
磷	-10.4651
在此	-10.4652
非洲	-10.4652
jo	-10.4662
摄	-10.4664
▁felt	-10.4664
hua	-10.4664
人物	-10.4669
▁commercial	-10.4671
旅行	-10.4674
铝	-10.4676
▁seek	-10.4678
一张	-10.468
权利	-10.4681
▁understanding	-10.4682
夺	-10.4684
居民	-10.469
▁map	-10.4694
SC	-10.4695
9%	-10.4695
▁earlier	-10.4695
凡	-10.47
▁artist	-10.47
▁beginning	-10.4703
转移	-10.4709
▁decade	-10.4712
+	-10.4714
泽	-10.4716
▁rare	-10.4716
旋	-10.4719
▁ran	-10.4723
一件	-10.4725
故	-10.4726
斑	-10.4726
house	-10.4726
邮	-10.4726
gent	-10.4726
gel	-10.4727
▁useful	-10.4729
▁sky	-10.4733
简单的	-10.4735
或许	-10.4738
eth	-10.4739
抱	-10.4739
ili	-10.4742
勇	-10.4745
▁International	-10.4745
yuan	-10.4747
▁projects	-10.4747
▁ultra	-10.475
SE	-10.475
▁characters	-10.4751
诉	-10.4753
盆	-10.4755
▁diagnosis	-10.4757
应力	-10.4758
惠	-10.476
制定	-10.4762
▁electronic	-10.4764
▁mine	-10.4765
▁sold	-10.4766
暂	-10.4767
▁install	-10.4767
很好	-10.4767
▁British	-10.4768
杂志	-10.4768
Your	-10.477
请求	-10.4773
开展	-10.4777
一旦	-10.4779
▁hyper	-10.4782
▁scheme	-10.4784
贷款	-10.4784
Yes	-10.4785
ode	-10.4791
▁ye	-10.4792
规范	-10.4793
意大利	-10.4793
fusion	-10.4794
属性	-10.4796
拒绝	-10.48
阀	-10.4804
cept	-10.4804
失败	-10.4806
mat	-10.4807
▁involved	-10.4807
▁planning	-10.4808
▁tools	-10.4809
▁comment	-10.481
更新	-10.481
mate	-10.4811
?”	-10.4813
▁park	-10.482
▁feet	-10.4823
亦	-10.4826
▁ideas	-10.4833
mail	-10.4834
hold	-10.4837
般	-10.4838
▁Fe	-10.4838
首次	-10.4838
▁hole	-10.4842
动脉	-10.4843
fold	-10.4844
▁alone	-10.4844
▁thin	-10.4845
Part	-10.4849
桑	-10.4852
污	-10.4858
▁born	-10.4858
淋	-10.4859
▁successful	-10.4861
宣	-10.4861
回答	-10.4864
▁West	-10.4865
▁ring	-10.4865
▁brief	-10.4867
▁determined	-10.4867
▁cook	-10.4873
我认为	-10.4881
Here	-10.4882
▁decided	-10.4883
现场	-10.4885
▁negative	-10.4892
公开	-10.4892
▁Har	-10.4901
消费	-10.4903
▁interview	-10.4907
硅	-10.4908
▁expand	-10.4909
丰	-10.491
▁bird	-10.4911
面积	-10.4915
比例	-10.4919
基督	-10.4924
▁setting	-10.4925
load	-10.4926
现状	-10.4933
施工	-10.4934
▁radio	-10.4936
400	-10.4937
饮	-10.4941
衣服	-10.4942
就能	-10.4945
记忆	-10.495
逆	-10.4951
警察	-10.4951
▁chain	-10.4955
决策	-10.496
佩	-10.4963
▁London	-10.4963
▁Ke	-10.4964
探索	-10.4966
密度	-10.4969
▁sit	-10.4978
▁shop	-10.4981
▁May	-10.4982
中间	-10.4983
ES	-10.4984
预防	-10.4985
美丽	-10.4989
flu	-10.4992
仿	-10.4994
▁techniques	-10.4997
以色列	-10.5002
很难	-10.5002
泵	-10.5006
之中	-10.5007
▁moving	-10.501
佳	-10.5014
▁Group	-10.5019
防止	-10.502
分配	-10.5026
lly	-10.5029
▁equation	-10.5031
男性	-10.5032
▁named	-10.504
刺激	-10.5041
依赖	-10.5043
▁calc	-10.5046
&	-10.505
▁trip	-10.5053
俗	-10.5054
▁grand	-10.5057
▁relative	-10.5062
购	-10.5063
启动	-10.5068
ography	-10.5069
润	-10.507
同意	-10.5071
罚	-10.5076
▁background	-10.5076
做了	-10.5078
指定	-10.5081
Through	-10.5084
撒	-10.5084
ised	-10.5084
▁tube	-10.5085
hr	-10.5086
▁adopt	-10.5096
▁component	-10.5096
和平	-10.5096
道路	-10.5098
梯	-10.5105
工厂	-10.5114
Not	-10.5116
▁images	-10.5116
幸	-10.5118
下面	-10.5123
氨	-10.5126
▁Shi	-10.5129
▁Ste	-10.5131
▁statement	-10.5137
▁playing	-10.5137
▁owner	-10.5138
劳动	-10.5139
RI	-10.5139
碰	-10.5141
▁infection	-10.5143
▁extract	-10.5152
▁ideal	-10.5153
精度	-10.5153
▁band	-10.5153
胺	-10.5157
▁bag	-10.5157
not	-10.5159
▁notice	-10.516
▁web	-10.5162
▁score	-10.5167
▁events	-10.5172
▁formula	-10.5176
▁chapter	-10.5179
岸	-10.5179
雄	-10.5183
习惯	-10.5184
▁Bi	-10.5184
誉	-10.5187
▁Ru	-10.5187
第四	-10.5188
债	-10.5192
grad	-10.5192
▁leave	-10.5192
吸收	-10.5192
武器	-10.5193
▁arrive	-10.5195
▁suit	-10.5195
▁angle	-10.5195
高兴	-10.5198
TO	-10.5199
▁calculate	-10.52
氢	-10.5203
艺	-10.5205
▁cities	-10.5205
高级	-10.5208
table	-10.5208
▁ear	-10.521
有所	-10.5211
Le	-10.5213
提升	-10.522
兼	-10.5221
碱	-10.5222
提出了一种	-10.5222
ball	-10.5225
▁earn	-10.5226
旗	-10.5226
▁transform	-10.5227
纵	-10.5229
拖	-10.5231
妻子	-10.5231
▁efforts	-10.5232
App	-10.5234
衰	-10.5238
损失	-10.5239
La	-10.524
▁handle	-10.524
享受	-10.5241
▁State	-10.5247
杜	-10.5248
▁chief	-10.5248
▁died	-10.5248
大脑	-10.5249
品质	-10.525
骑	-10.525
培训	-10.5251
违	-10.5252
lk	-10.5256
▁deposit	-10.5256
几年	-10.5257
hal	-10.5259
▁rice	-10.5261
hand	-10.5264
重大	-10.5268
▁nuclear	-10.5272
▁French	-10.5275
chan	-10.5281
形象	-10.5282
▁club	-10.5295
Today	-10.5297
苯	-10.5301
成立	-10.5302
进展	-10.5305
安排	-10.5305
morph	-10.5306
65	-10.5306
衡	-10.5307
售	-10.5309
▁prepared	-10.5311
▁secret	-10.5315
诊	-10.5322
▁En	-10.5323
墨	-10.5324
▁variety	-10.5325
▁implementation	-10.5333
中央	-10.5335
▁frame	-10.5335
幻	-10.5338
shan	-10.5339
▁played	-10.5344
忘	-10.5347
攻	-10.5351
▁instance	-10.5352
清单	-10.5357
▁distance	-10.5359
▁camp	-10.5361
旨	-10.5363
▁plans	-10.5365
的一部分	-10.5367
▁storage	-10.5367
颈	-10.5368
给你	-10.537
▁instrument	-10.5376
不管	-10.538
支付	-10.5389
▁ready	-10.539
剩	-10.539
Or	-10.5394
pound	-10.5396
欲	-10.5399
▁powerful	-10.5401
▁attend	-10.5405
葡萄	-10.5406
敢	-10.5407
▁wild	-10.5409
红色	-10.5415
挤	-10.5416
▁emotion	-10.5418
▁instead	-10.5419
我会	-10.542
▁associated	-10.5422
▁excellent	-10.5422
RE	-10.5422
智能	-10.5422
补充	-10.5426
担	-10.5426
▁concentration	-10.5427
▁painting	-10.5428
US	-10.5429
▁biggest	-10.5432
实例	-10.5434
Mar	-10.5442
▁daughter	-10.5444
最好	-10.5445
讯	-10.5449
▁purpose	-10.5459
承认	-10.5459
砂	-10.546
曲线	-10.5461
框架	-10.5465
▁hum	-10.5467
▁opening	-10.5467
▁teachers	-10.547
▁evaluation	-10.5473
遇到	-10.5474
General	-10.5475
纪	-10.5478
常常	-10.548
每一个	-10.5483
够	-10.5484
虎	-10.5485
▁mobile	-10.5485
腐	-10.5487
之外	-10.5487
▁Lin	-10.5488
出生	-10.5488
SD	-10.5492
症状	-10.5492
▁resource	-10.5493
▁operating	-10.5493
▁cooperation	-10.5494
▁significantly	-10.5497
lib	-10.55
ific	-10.5501
AM	-10.5502
左右	-10.5502
宗教	-10.5503
女儿	-10.5503
维护	-10.5505
浓	-10.5507
EC	-10.5514
悬	-10.5518
模块	-10.552
ridge	-10.5524
偷	-10.5525
稳定性	-10.5526
▁efficient	-10.5529
Al	-10.5533
父	-10.5535
▁tissue	-10.5536
▁psych	-10.5541
▁bond	-10.5541
▁relations	-10.5553
熟	-10.5554
冻	-10.5554
▁plane	-10.5555
态度	-10.5557
事业	-10.5561
事务	-10.5562
arm	-10.5563
含有	-10.557
▁critic	-10.5571
我要	-10.5571
氯	-10.5574
妙	-10.5576
刊	-10.558
脂肪	-10.5586
48	-10.5587
坐在	-10.5591
貌	-10.5594
障碍	-10.5596
▁formed	-10.5602
办公室	-10.5602
穷	-10.5605
琴	-10.5607
伙	-10.5609
Other	-10.5611
节目	-10.5612
▁calculation	-10.5612
▁square	-10.5616
▁completely	-10.5618
寒	-10.5624
37	-10.5625
cell	-10.5625
编辑	-10.5626
有助于	-10.5635
last	-10.564
▁income	-10.5641
明确	-10.5643
▁edge	-10.5648
▁trees	-10.5648
捷	-10.565
▁improvement	-10.5651
▁continuous	-10.5652
34	-10.5658
收集	-10.5661
逻辑	-10.5664
莎	-10.5665
证据	-10.5667
您可以	-10.5671
脏	-10.5672
将其	-10.5674
浓度	-10.5675
犯罪	-10.5675
孩子们	-10.5675
▁fully	-10.5676
▁animals	-10.5679
▁bottom	-10.568
iness	-10.5681
流动	-10.5682
毫	-10.5683
▁contains	-10.5683
▁correspond	-10.5685
illa	-10.5686
▁customer	-10.5686
RA	-10.5686
说道	-10.5687
▁rose	-10.5689
心脏	-10.5689
对比	-10.569
▁origin	-10.5691
的目标	-10.5694
察	-10.5696
丙	-10.5704
▁website	-10.5707
CM	-10.571
Under	-10.5714
男孩	-10.5715
▁import	-10.5715
▁debt	-10.5719
▁Korea	-10.572
吹	-10.5722
策	-10.5728
相似	-10.573
▁flat	-10.5731
▁Chi	-10.5743
完善	-10.5743
弃	-10.5745
接近	-10.5748
down	-10.5752
原料	-10.5753
标志	-10.5753
庆	-10.5755
大量的	-10.5756
停止	-10.5762
烈	-10.5764
作出	-10.5765
▁career	-10.5765
调节	-10.5765
▁trouble	-10.5769
▁belong	-10.5769
▁strengthen	-10.5769
的情况下	-10.5787
毕业	-10.5788
▁toward	-10.5788
▁institution	-10.579
强调	-10.5791
▁spent	-10.5796
physi	-10.5798
孤	-10.5799
▁salt	-10.58
▁significance	-10.5802
尤	-10.5804
85	-10.5805
克斯	-10.5807
▁knew	-10.5809
ME	-10.5813
loc	-10.5814
<	-10.5818
遗传	-10.5818
赢得	-10.582
届	-10.5821
▁leaves	-10.5822
▁laser	-10.5822
拓	-10.5822
人生	-10.5826
▁noise	-10.5829
讨	-10.5831
▁Province	-10.5831
韦	-10.5832
有很多	-10.5835
33	-10.5837
评论	-10.5838
▁pair	-10.5841
head	-10.5845
ibility	-10.5845
▁demonstrate	-10.5845
▁taste	-10.585
牧	-10.5855
▁straight	-10.5856
稀	-10.5857
氮	-10.5858
38	-10.5861
▁24	-10.5862
▁greater	-10.5869
芬	-10.5871
秒	-10.5876
辩	-10.5885
cycl	-10.5889
把它	-10.5891
ae	-10.5893
lon	-10.5897
▁independent	-10.5898
atory	-10.5899
脉	-10.59
正式	-10.5901
纷	-10.5904
农村	-10.5904
▁snow	-10.5905
▁limited	-10.5905
卢	-10.5907
代理	-10.5911
▁daily	-10.5913
▁trust	-10.5918
推动	-10.5921
Second	-10.5922
▁particularly	-10.5923
哲学	-10.5923
▁Yang	-10.5924
rist	-10.5925
▁crystal	-10.5925
以便	-10.5926
▁regulation	-10.5934
较大	-10.5935
军事	-10.5936
瓜	-10.5937
▁Chen	-10.594
舍	-10.5943
跃	-10.5947
ional	-10.5948
▁actual	-10.5951
chlor	-10.5951
行政	-10.5952
▁Dynasty	-10.5953
小组	-10.5957
厅	-10.5961
▁King	-10.5963
验	-10.5982
▁lose	-10.5983
▁ban	-10.5984
▁published	-10.5985
▁speech	-10.5986
须	-10.5987
交换	-10.5987
99	-10.5987
▁Bank	-10.5987
鬼	-10.5989
编码	-10.5989
▁garden	-10.5993
rant	-10.5995
异常	-10.5997
二十	-10.5999
▁shot	-10.6
▁branch	-10.6
迈	-10.6001
▁thus	-10.6005
卵	-10.6006
▁investigation	-10.6007
▁worked	-10.6009
单元	-10.6015
留下	-10.6015
庭	-10.6015
pper	-10.6016
▁All	-10.6019
ility	-10.6019
呼吸	-10.6028
▁Israel	-10.6028
Each	-10.603
▁sweet	-10.6038
为主	-10.604
DC	-10.604
>	-10.6047
炸	-10.6051
投资者	-10.6052
night	-10.6053
▁towards	-10.6057
▁curve	-10.6062
谋	-10.6063
气体	-10.6064
▁animal	-10.6065
棉	-10.6065
上述	-10.6067
ounce	-10.6067
包装	-10.607
▁effectively	-10.607
2007	-10.6081
well	-10.6085
故障	-10.6089
股票	-10.609
鼓	-10.6094
闲	-10.6094
在那里	-10.6094
▁players	-10.6095
频率	-10.6099
▁pig	-10.61
chang	-10.6101
▁Ed	-10.6102
▁prior	-10.6105
幸福	-10.6111
▁Mon	-10.6111
▁hour	-10.6115
覆盖	-10.6115
革	-10.6118
生存	-10.6119
监测	-10.612
协会	-10.6122
DM	-10.6124
▁poll	-10.6127
我们可以	-10.6139
▁historical	-10.6142
绕	-10.6148
株	-10.615
翼	-10.6151
妮	-10.6156
体现	-10.6158
▁annual	-10.6158
▁critical	-10.6161
▁column	-10.6162
▁baby	-10.6167
▁relation	-10.6168
▁comfort	-10.617
CR	-10.6175
呈现	-10.6182
▁highest	-10.6187
▁treated	-10.6189
秘	-10.6191
▁included	-10.6194
valu	-10.6197
螺	-10.6199
▁Wang	-10.62
前景	-10.62
▁horse	-10.6204
我们将	-10.6208
▁fluid	-10.6216
cra	-10.6217
each	-10.6219
astic	-10.6221
称为	-10.6228
浸	-10.6234
穆	-10.6236
▁Go	-10.6238
▁quarter	-10.6239
lysis	-10.624
人工	-10.624
▁killed	-10.624
▁opportunity	-10.6244
大鼠	-10.625
▁severe	-10.625
Once	-10.6252
force	-10.6255
Sa	-10.6257
graphic	-10.626
RS	-10.626
▁raise	-10.6262
有点	-10.6263
▁university	-10.6263
完美	-10.6264
名称	-10.6271
扣	-10.6272
impl	-10.6273
运输	-10.6275
▁collection	-10.6276
▁aspects	-10.6283
▁overall	-10.6287
供应	-10.629
枝	-10.6291
洪	-10.6293
▁Earth	-10.6296
机器	-10.6301
模糊	-10.6305
▁Wu	-10.6305
更为	-10.6307
agon	-10.6309
扰	-10.6311
修改	-10.6311
文本	-10.6311
对此	-10.6311
cit	-10.6314
亡	-10.6314
情绪	-10.6315
Ba	-10.6318
电池	-10.6324
▁climate	-10.6325
▁labor	-10.6327
杨	-10.6328
Micro	-10.6329
▁tried	-10.6332
图片	-10.6337
动作	-10.6337
▁spin	-10.6337
机理	-10.6337
▁effort	-10.6338
Mi	-10.6339
组件	-10.634
传输	-10.6347
货币	-10.6347
active	-10.6347
身份	-10.6347
but	-10.6348
熊	-10.6349
强烈	-10.6349
Using	-10.6351
恐	-10.6353
双方	-10.6354
▁followed	-10.6354
混凝土	-10.6359
▁crack	-10.6359
满意	-10.636
浅	-10.636
▁paid	-10.6361
aries	-10.6361
aving	-10.6361
$	-10.6361
▁appropriate	-10.6368
▁skills	-10.637
▁prove	-10.6371
▁vote	-10.6371
duction	-10.6371
统一	-10.6376
真正的	-10.6378
▁powder	-10.638
韩国	-10.6383
▁variable	-10.6391
▁2007	-10.6392
并非	-10.6395
童	-10.6397
▁island	-10.6399
▁conduct	-10.6402
▁$1	-10.6404
盒	-10.6405
遍	-10.6408
因子	-10.641
冲突	-10.6414
▁healthy	-10.6415
想象	-10.6416
▁purchase	-10.6424
▁mono	-10.6425
俱乐部	-10.6432
hydr	-10.6438
茨	-10.6441
Com	-10.6446
°	-10.6447
祝	-10.6447
当我	-10.645
Can	-10.6451
良好	-10.6461
很好的	-10.6463
▁virus	-10.6463
▁husband	-10.6464
▁package	-10.6469
品种	-10.6472
ologist	-10.6476
忍	-10.6477
主席	-10.6478
联邦	-10.6486
▁accurate	-10.6488
依然	-10.649
军队	-10.649
▁egg	-10.6492
成长	-10.6492
壮	-10.6494
操	-10.6494
赛季	-10.6503
▁winter	-10.6504
合金	-10.6504
▁moved	-10.6509
昂	-10.6518
妇	-10.6519
美国人	-10.652
▁discusses	-10.6521
宗	-10.6522
扩大	-10.6525
▁accident	-10.6527
▁syn	-10.6529
▁Mc	-10.6532
文档	-10.6532
颗	-10.6534
BS	-10.6538
▁jump	-10.6538
虚拟	-10.6541
▁flight	-10.6542
craft	-10.6549
2001	-10.6549
滴	-10.6549
这是一个	-10.6553
海洋	-10.6554
从事	-10.6555
成果	-10.6555
2002	-10.657
▁importance	-10.6572
表演	-10.6575
▁beam	-10.6578
▁detection	-10.6578
▁immediately	-10.6589
ache	-10.6591
▁Bu	-10.6593
发育	-10.6593
伤害	-10.6595
研制	-10.6597
dio	-10.6602
▁mouth	-10.6604
ulated	-10.6611
作家	-10.6615
籍	-10.6616
MI	-10.6617
证实	-10.6619
▁rural	-10.6619
tom	-10.6619
▁beauty	-10.6621
mmer	-10.6623
▁latest	-10.6625
▁sports	-10.6627
▁processes	-10.6627
▁Qing	-10.6633
▁hat	-10.6635
55	-10.6636
研究人员	-10.6638
明白	-10.664
刘	-10.6641
▁injury	-10.6642
▁paint	-10.6648
▁therapy	-10.6649
地下	-10.6652
88	-10.6652
public	-10.6654
铸	-10.6655
百万	-10.6655
600	-10.6656
▁truth	-10.6657
Cl	-10.6658
系数	-10.666
成熟	-10.6666
实验室	-10.6671
外国	-10.6674
南部	-10.668
工人	-10.6682
nel	-10.6684
owned	-10.6686
▁scientists	-10.6692
掌	-10.6698
▁writer	-10.67
回来	-10.671
的名字	-10.6715
86	-10.6722
辐射	-10.6723
基地	-10.6728
森林	-10.6731
▁photograph	-10.6735
ulate	-10.6736
伏	-10.6736
ough	-10.6737
意见	-10.6737
进程	-10.6738
财政	-10.6738
▁wash	-10.6745
很少	-10.6747
猎	-10.6757
▁tumor	-10.6757
▁valid	-10.6757
PD	-10.6758
不可能	-10.6761
▁reached	-10.6762
▁neuro	-10.6762
▁respectively	-10.6764
known	-10.6768
一座	-10.677
Time	-10.677
book	-10.6771
▁quick	-10.6771
IBM	-10.6772
北部	-10.6774
▁virtual	-10.6775
▁input	-10.6783
▁spoke	-10.6787
瑟	-10.6788
某种	-10.6788
舒	-10.6791
释放	-10.6794
▁settle	-10.6797
叠	-10.6797
丧	-10.6799
▁shift	-10.6805
▁preparation	-10.6806
▁module	-10.6807
▁race	-10.6808
▁symbol	-10.6808
来看	-10.6809
Also	-10.681
ON	-10.6814
▁sat	-10.6821
▁dance	-10.6823
▁manufacturing	-10.6823
▁System	-10.6824
还要	-10.6826
稍	-10.6826
▁opened	-10.6826
究	-10.6827
雕	-10.6827
带着	-10.6827
获取	-10.6828
▁smooth	-10.6828
▁milk	-10.6832
lateral	-10.6841
每一	-10.6845
腰	-10.6845
塑料	-10.6856
厌	-10.686
农民	-10.6862
随机	-10.6863
▁cycle	-10.6863
辞	-10.6866
荡	-10.6868
召	-10.6877
敏感	-10.6879
四个	-10.6887
▁consumption	-10.6889
▁player	-10.6892
▁comprehensive	-10.6894
更好的	-10.6898
poli	-10.6901
▁transmission	-10.6901
戈	-10.6906
▁although	-10.6906
公里	-10.691
En	-10.691
抛	-10.6911
▁weather	-10.6911
么	-10.6911
到达	-10.6912
携	-10.6912
▁discover	-10.692
rise	-10.692
公路	-10.6923
引发	-10.6924
站在	-10.6933
先进	-10.6934
▁generally	-10.6934
▁topic	-10.6935
▁seat	-10.6936
她说	-10.6939
有限	-10.694
谢	-10.6942
耶稣	-10.6942
MB	-10.6945
月份	-10.6947
cri	-10.6949
▁reduced	-10.6949
▁wrote	-10.6952
roll	-10.6952
▁repeat	-10.6952
预计	-10.6952
通用	-10.6958
▁Air	-10.6964
▁exhibit	-10.6964
压缩	-10.6969
▁administration	-10.6973
▁Center	-10.6973
韩	-10.6974
得出	-10.6977
▁breath	-10.6977
▁theoretical	-10.6978
▁fixed	-10.6981
雾	-10.6983
▁giving	-10.6986
▁discussion	-10.6986
批评	-10.6991
姐	-10.6996
投入	-10.6997
oke	-10.6998
▁battle	-10.6999
缺陷	-10.7002
赋	-10.7004
发射	-10.7005
变形	-10.7006
por	-10.7007
ken	-10.7009
▁genetic	-10.701
涵	-10.7011
格式	-10.7011
▁talent	-10.7012
39	-10.7014
▁divided	-10.7014
作业	-10.7016
追求	-10.7018
▁appearance	-10.7019
思考	-10.702
财	-10.7021
▁cutting	-10.7023
铺	-10.7026
▁enable	-10.7026
另	-10.7028
继	-10.7029
晨	-10.7032
.”"	-10.7033
臂	-10.7033
▁composition	-10.7035
RO	-10.7038
▁items	-10.704
联合国	-10.704
爆	-10.704
▁mix	-10.7042
戏	-10.7042
弟	-10.7046
诱	-10.7047
▁kept	-10.7048
▁architecture	-10.7053
▁innovation	-10.7058
▁pure	-10.7059
西班牙	-10.7062
还没有	-10.7063
oriented	-10.7069
▁Ltd	-10.7069
不错	-10.7069
正如	-10.7069
▁external	-10.7071
恰	-10.7075
▁Mil	-10.708
援	-10.7083
▁mental	-10.7087
▁valve	-10.709
各个	-10.709
▁chair	-10.7092
集成	-10.7093
数值	-10.7093
冠军	-10.7096
阐述了	-10.7101
▁Qi	-10.7104
64	-10.7105
探讨了	-10.7107
▁prospect	-10.7109
induced	-10.7114
▁gather	-10.7114
▁western	-10.7116
▁classic	-10.7117
近年来	-10.7118
▁restaurant	-10.712
烤	-10.7121
▁campaign	-10.7122
▁closed	-10.7124
▁recovery	-10.7125
预期	-10.7125
▁yellow	-10.7125
gri	-10.7132
▁promise	-10.7135
▁passed	-10.7138
▁larger	-10.714
什	-10.7143
▁driver	-10.7144
jiang	-10.7146
▁trial	-10.7153
收到	-10.7161
扫描	-10.7166
RT	-10.717
▁fabric	-10.7171
▁smile	-10.7177
▁relevant	-10.7179
▁guy	-10.7179
NE	-10.7181
▁patient	-10.7183
声明	-10.7183
标记	-10.7184
锋	-10.7189
恋	-10.7189
宏	-10.719
篮	-10.7191
▁stable	-10.7192
▁advance	-10.7193
▁Lord	-10.7197
特色	-10.7203
提到	-10.7208
该公司	-10.7211
▁Park	-10.7212
也就是	-10.7217
给予	-10.7217
贫	-10.7223
保存	-10.7226
▁sensor	-10.7226
▁habit	-10.7227
Dr	-10.7231
▁functional	-10.7232
▁strain	-10.7233
free	-10.7238
民主	-10.7243
网上	-10.7249
仁	-10.7249
stitut	-10.7251
▁govern	-10.7254
浴	-10.7259
▁finger	-10.7259
▁crime	-10.726
▁desire	-10.726
垃圾	-10.7261
▁attach	-10.7262
解决方案	-10.7263
▁convert	-10.7265
帐	-10.7266
目录	-10.7267
udi	-10.7271
蜂	-10.7272
Add	-10.7275
▁transport	-10.7276
Hu	-10.728
▁therefore	-10.7281
▁shoe	-10.7292
yang	-10.7297
▁visual	-10.7297
培	-10.7298
跌	-10.73
董	-10.7302
▁bill	-10.7302
▁miles	-10.7306
▁grain	-10.7306
▁selection	-10.7307
▁Ber	-10.7308
人群	-10.7309
肿	-10.7309
▁beyond	-10.7315
澳大利亚	-10.7317
▁myself	-10.7317
▁adopted	-10.7318
事故	-10.7324
拍摄	-10.7325
▁School	-10.7329
▁agreement	-10.7332
终于	-10.7338
▁mechanical	-10.7338
Over	-10.7339
华盛顿	-10.7339
hop	-10.734
马克	-10.7342
▁decline	-10.7343
公布	-10.7348
▁seal	-10.7352
痛苦	-10.7354
收益	-10.7357
ancy	-10.7358
原子	-10.7359
flow	-10.7359
等等	-10.7359
汁	-10.7363
渡	-10.7364
logical	-10.7366
TE	-10.7371
ception	-10.7371
cro	-10.7372
▁meat	-10.7375
otic	-10.7379
▁Olympic	-10.7381
页面	-10.7382
栏	-10.7387
电力	-10.7387
维持	-10.7393
面前	-10.7401
出去	-10.7406
肩	-10.7408
44	-10.7408
▁performed	-10.7409
保障	-10.7413
▁measured	-10.7413
初步	-10.7416
转变	-10.7417
PO	-10.7422
▁Department	-10.7424
加拿大	-10.7426
那种	-10.7432
▁obtain	-10.7437
▁frequent	-10.7438
gest	-10.744
▁fix	-10.7442
pher	-10.7443
步骤	-10.7445
电流	-10.7448
更高	-10.7458
涉	-10.746
关节	-10.7461
cap	-10.7468
感谢	-10.7468
耶	-10.7472
▁flood	-10.7479
▁destroy	-10.7488
metry	-10.7492
饱	-10.7493
盟	-10.7503
摘	-10.7507
检验	-10.7507
地面	-10.7512
▁organic	-10.7523
实用	-10.7525
▁upper	-10.753
袭击	-10.7531
▁observed	-10.7531
▁sustain	-10.7534
▁diet	-10.7537
承诺	-10.7539
商务	-10.7539
兴趣	-10.7548
▁gone	-10.7548
lig	-10.7552
metric	-10.7553
重复	-10.7556
▁motion	-10.7558
▁ahead	-10.7564
白色	-10.7568
proof	-10.7569
abilities	-10.757
how	-10.7572
燃料	-10.7574
vin	-10.7578
▁factory	-10.7584
Figure	-10.7585
响应	-10.7586
Another	-10.7587
uit	-10.7593
好像	-10.7593
传递	-10.7599
估	-10.76
部队	-10.76
返回	-10.7601
引入	-10.7601
展开	-10.7604
津	-10.7608
家里	-10.7609
Only	-10.7609
玉	-10.7609
一块	-10.7611
同时也	-10.7611
拔	-10.7614
look	-10.7618
More	-10.7621
▁cash	-10.7622
髓	-10.7624
卫星	-10.7627
▁examine	-10.7629
▁journal	-10.7632
部长	-10.7634
考试	-10.7634
考察	-10.7636
朵	-10.7639
驻	-10.7644
▁fashion	-10.7645
cli	-10.7645
OR	-10.7645
▁stick	-10.7645
推广	-10.7647
place	-10.765
wan	-10.7653
▁gift	-10.7667
▁marriage	-10.7673
装饰	-10.7675
▁lift	-10.7677
▁sister	-10.7678
互联网	-10.7678
孙	-10.7679
42	-10.768
▁House	-10.7684
operative	-10.7686
▁welcome	-10.7687
name	-10.7692
▁perhaps	-10.7693
▁additional	-10.7696
▁camera	-10.7698
power	-10.7699
▁France	-10.7699
道德	-10.771
时刻	-10.7712
▁configuration	-10.7713
确认	-10.7713
▁repair	-10.7718
▁ski	-10.7722
49	-10.7725
外交	-10.7727
也没有	-10.7732
▁muscle	-10.7734
▁guarantee	-10.7737
▁copy	-10.7738
▁recognize	-10.7738
▁symptom	-10.7741
▁inhibit	-10.7741
适当	-10.7741
tiv	-10.7741
罗马	-10.7741
▁via	-10.7742
▁nice	-10.7744
\\	-10.7748
▁automatic	-10.7753
候	-10.7755
▁conducted	-10.7756
▁monitoring	-10.7759
vert	-10.7759
盗	-10.7761
获得了	-10.7762
选举	-10.7763
饼	-10.7764
贡献	-10.7764
丢	-10.7765
注射	-10.7769
体验	-10.7771
▁mill	-10.7775
小型	-10.7777
47	-10.7778
理念	-10.7779
滩	-10.7779
NG	-10.7779
跟踪	-10.778
序列	-10.7781
机场	-10.7782
Ra	-10.7783
path	-10.7784
▁mathematic	-10.7784
▁nine	-10.7791
Three	-10.7793
▁invention	-10.7793
▁loan	-10.7793
平面	-10.7801
run	-10.7802
逐	-10.7802
相应的	-10.7803
英里	-10.7803
重视	-10.7804
▁currently	-10.7812
层次	-10.7814
干扰	-10.7817
战斗	-10.7818
▁Shen	-10.7818
出发	-10.7819
分享	-10.7819
DE	-10.782
在过去	-10.7821
now	-10.7822
▁responsible	-10.7825
▁El	-10.7826
▁gun	-10.7827
拟	-10.7828
▁greatly	-10.783
这一点	-10.7836
巨大	-10.7837
勃	-10.7839
dimensional	-10.7839
阳光	-10.7842
相反	-10.7842
▁height	-10.7843
▁Tai	-10.7843
▁sm	-10.7845
▁Wo	-10.7847
Use	-10.7851
箭	-10.7852
轨	-10.7854
organ	-10.7855
献	-10.7855
联盟	-10.7857
▁relatively	-10.7862
力学	-10.787
fully	-10.7871
放弃	-10.7878
潜在	-10.788
记得	-10.7884
hong	-10.7885
调用	-10.7887
▁respond	-10.7891
▁learned	-10.7891
▁conflict	-10.7893
▁dig	-10.7896
邦	-10.79
▁surprise	-10.7906
还可以	-10.7906
产量	-10.7908
丈夫	-10.7913
荒	-10.7914
功率	-10.7915
▁coast	-10.7916
urge	-10.7918
斯坦	-10.7919
希腊	-10.7926
▁kids	-10.7927
移植	-10.793
phy	-10.793
遥	-10.7932
律师	-10.7936
▁controlled	-10.7937
公众	-10.7938
耶和华	-10.7938
突出	-10.794
▁interesting	-10.7941
等待	-10.7941
脊	-10.7941
▁German	-10.7942
▁delay	-10.7946
随后	-10.7946
▁pop	-10.7947
aught	-10.7948
化合物	-10.7953
传感器	-10.7954
技巧	-10.7955
▁reality	-10.7962
▁insurance	-10.7962
下去	-10.7963
▁creating	-10.7965
修复	-10.7968
scale	-10.7969
▁quo	-10.7971
▁hypo	-10.7972
赖	-10.7975
87	-10.7989
Who	-10.7992
宿	-10.7992
密切	-10.7992
▁moral	-10.7993
即将	-10.7993
▁Western	-10.7994
▁moon	-10.7994
▁suggested	-10.7996
挑	-10.7997
▁laugh	-10.8001
▁discovered	-10.8003
▁Monday	-10.8004
消除	-10.8006
imate	-10.8008
账	-10.801
严格	-10.8012
▁executive	-10.8016
mul	-10.8017
800	-10.8017
▁released	-10.8023
看着	-10.8023
泉	-10.8024
机器人	-10.8027
▁interaction	-10.8028
陷	-10.8029
▁sequence	-10.8038
注册	-10.8041
▁newspaper	-10.8041
▁families	-10.8042
凭	-10.8045
New	-10.8045
婴儿	-10.8045
▁examination	-10.8048
Both	-10.8051
炮	-10.8052
递	-10.8055
节点	-10.8055
▁senior	-10.8056
鼓励	-10.8056
unch	-10.8056
46	-10.8061
▁involve	-10.8063
剖	-10.8064
我知道	-10.8067
▁throw	-10.8068
▁shoot	-10.8074
观念	-10.8076
▁officer	-10.808
优秀	-10.8081
居住	-10.8082
▁peak	-10.8087
看来	-10.8088
▁happened	-10.8089
▁scar	-10.8094
姓	-10.8094
▁clothes	-10.8094
忠	-10.8098
▁earthquake	-10.8098
锅	-10.8101
独特的	-10.8103
纳米	-10.8104
懂	-10.8109
▁engage	-10.8111
形状	-10.8111
▁smaller	-10.8112
人才	-10.8113
中的应用	-10.8114
朝鲜	-10.8116
0.0	-10.8116
伙伴	-10.8117
▁Tu	-10.812
某个	-10.8124
▁linear	-10.8127
new	-10.8128
酮	-10.813
▁encourage	-10.813
▁anyone	-10.813
▁investors	-10.8131
领导人	-10.8131
呆	-10.8131
技能	-10.8132
阿尔	-10.8136
同事	-10.8139
▁neighbor	-10.814
glo	-10.8141
▁weapon	-10.8143
驱	-10.8147
▁throughout	-10.8148
▁improving	-10.815
迎	-10.8153
*	-10.8155
▁proved	-10.8156
术后	-10.8158
▁sector	-10.8158
绝对	-10.8159
▁changing	-10.816
▁soul	-10.8161
▁Germany	-10.8162
▁determination	-10.8165
隙	-10.8168
常规	-10.8169
▁appeared	-10.8169
判断	-10.8171
协调	-10.8178
槽	-10.8181
细菌	-10.8188
▁judge	-10.8188
顾客	-10.8199
贯	-10.82
▁opinion	-10.8201
Good	-10.8204
屏	-10.821
▁Washington	-10.8212
▁optical	-10.8213
Any	-10.8213
接口	-10.8215
▁tip	-10.8215
▁England	-10.822
进口	-10.8221
消失	-10.8223
▁quiet	-10.8226
▁tele	-10.8227
足球	-10.8231
Oh	-10.8231
权力	-10.8232
▁grass	-10.8233
催	-10.8233
stand	-10.8233
▁contrast	-10.8234
两国	-10.8235
MC	-10.8235
怀疑	-10.824
一半	-10.8241
发送	-10.8242
▁restrict	-10.8244
Work	-10.8245
Last	-10.8249
▁library	-10.8251
▁density	-10.8252
▁identify	-10.8256
颗粒	-10.8258
革命	-10.8261
▁evolution	-10.8263
▁border	-10.8264
class	-10.8265
▁sharp	-10.8269
尺	-10.8273
埋	-10.8276
天气	-10.8276
▁creation	-10.8276
黑色	-10.8284
▁catch	-10.8285
帽	-10.829
é	-10.829
▁corner	-10.8291
▁possess	-10.8293
踪	-10.8293
▁tight	-10.8295
等方面	-10.8299
押	-10.8303
保留	-10.8305
▁driving	-10.8307
寻求	-10.8307
乎	-10.8308
成绩	-10.8314
▁Jin	-10.8317
je	-10.8321
爬	-10.8321
冲击	-10.8321
▁Day	-10.8323
▁dust	-10.8324
阔	-10.8324
▁defect	-10.8325
minated	-10.8329
最小	-10.8334
扭	-10.834
上涨	-10.8343
理由	-10.8345
vy	-10.8346
蜜	-10.8347
秀	-10.8349
恐怖	-10.8351
转化	-10.8356
实时	-10.8358
▁regional	-10.8358
学者	-10.8361
▁sugar	-10.8365
=	-10.8369
精确	-10.8369
削	-10.8369
▁planet	-10.8369
▁attribute	-10.8372
▁Sea	-10.8372
爆炸	-10.838
回家	-10.838
▁announced	-10.8384
接着	-10.8385
▁injection	-10.8386
泪	-10.8387
聊	-10.8391
稻	-10.8394
▁mixed	-10.8394
▁accuracy	-10.8397
▁affected	-10.8398
style	-10.8398
艰	-10.8403
▁Russia	-10.8403
▁objective	-10.8406
▁hardware	-10.8407
▁Friday	-10.8407
非线性	-10.841
铁路	-10.8418
NO	-10.8422
▁wonder	-10.8422
▁title	-10.8423
下午	-10.8425
专门	-10.8426
▁update	-10.8427
▁blow	-10.8428
▁Chang	-10.8431
振动	-10.8434
尺寸	-10.8437
PR	-10.8438
tell	-10.8439
▁remote	-10.8439
巧	-10.844
筛	-10.8442
制品	-10.8444
▁east	-10.8445
▁shell	-10.8447
爱情	-10.8448
▁interpret	-10.8452
骗	-10.8458
▁emerge	-10.8459
一套	-10.8459
▁allowed	-10.8461
抢	-10.8462
大陆	-10.8462
薪	-10.8474
▁pet	-10.8477
不久	-10.8479
番	-10.8484
头发	-10.8484
握	-10.8485
嵌	-10.8487
▁selected	-10.8491
搞	-10.8491
▁television	-10.8493
误差	-10.85
79	-10.85
▁bottle	-10.85
泄	-10.8503
PM	-10.8505
▁wealth	-10.8506
替代	-10.8509
▁Art	-10.8513
无线	-10.8516
变量	-10.852
胜利	-10.852
细节	-10.8522
▁becoming	-10.8524
▁classes	-10.853
pass	-10.8532
▁minister	-10.8533
建造	-10.8537
CH	-10.8539
硬件	-10.854
▁era	-10.854
通道	-10.8543
女士	-10.8544
▁Institute	-10.8545
慈	-10.8551
Michael	-10.8551
贷	-10.8552
▁abroad	-10.8558
▁Sun	-10.8559
▁seemed	-10.8562
▁wheel	-10.8567
▁raised	-10.8568
ku	-10.8575
演员	-10.8577
▁node	-10.8578
▁liver	-10.8582
欧元	-10.8582
最初	-10.8583
梦想	-10.8584
ifier	-10.8591
▁random	-10.8591
一步	-10.8595
▁fracture	-10.8601
吻	-10.8604
▁Sch	-10.8605
▁pollution	-10.8607
法院	-10.8617
▁operate	-10.8617
▁district	-10.8617
▁consult	-10.8617
▁cluster	-10.8624
感受	-10.8627
150	-10.8629
56	-10.863
共享	-10.8634
▁integrated	-10.8635
罐	-10.8636
▁summarize	-10.8636
▁Sunday	-10.8637
▁mistake	-10.8637
旋转	-10.8637
观众	-10.8639
▁route	-10.8642
▁thermal	-10.8643
该方法	-10.8654
血液	-10.8654
▁employees	-10.8657
▁Ben	-10.8659
警告	-10.866
▁Port	-10.8663
拼	-10.8666
打算	-10.8673
▁raw	-10.8675
▁Party	-10.8682
烯	-10.8683
进步	-10.8683
急性	-10.8686
78	-10.8688
train	-10.8692
太多	-10.8693
紧张	-10.8694
拥	-10.8694
▁circle	-10.8696
▁distinct	-10.8698
漆	-10.8703
Where	-10.8704
这个问题	-10.871
弹性	-10.8711
边界	-10.8713
▁smoke	-10.8717
推出	-10.8731
桃	-10.8734
醉	-10.8734
不良	-10.8736
兄弟	-10.8737
涨	-10.8742
偿	-10.8742
钙	-10.8743
假设	-10.8747
捐	-10.8747
▁strike	-10.8749
炼	-10.8752
▁Xin	-10.8755
▁sentence	-10.8759
Qu	-10.8762
纤	-10.8764
色彩	-10.8764
▁clearly	-10.8764
▁conclusion	-10.8765
年轻人	-10.8769
扫	-10.877
▁filled	-10.8783
电压	-10.8784
伊拉克	-10.8789
Thank	-10.879
▁perspective	-10.8791
▁strange	-10.8792
辨	-10.8795
燃烧	-10.8796
学术	-10.8797
椅	-10.88
蛋白质	-10.88
▁pool	-10.8804
高效	-10.8804
局部	-10.8808
地址	-10.8815
▁hang	-10.8815
toxic	-10.8818
享	-10.8819
Like	-10.8822
▁monitor	-10.8822
安全性	-10.8827
辉	-10.8831
▁gradually	-10.8831
▁pretty	-10.8833
显然	-10.8843
熔	-10.8848
炭	-10.8849
▁shock	-10.8858
青年	-10.8864
部件	-10.8869
纺	-10.8872
蚀	-10.8873
舰	-10.8873
搬	-10.8875
进行了分析	-10.8877
柏	-10.8879
▁conference	-10.8879
每次	-10.8889
▁voltage	-10.8895
▁shut	-10.8895
~	-10.8896
▁academic	-10.8899
▁format	-10.8899
▁achievement	-10.89
剑	-10.8902
war	-10.8903
▁landscape	-10.8904
刷	-10.8906
▁Min	-10.8912
making	-10.8914
列表	-10.8914
猛	-10.8916
接下来	-10.8918
就业	-10.8928
▁domain	-10.8931
疯	-10.8932
清洁	-10.8939
影片	-10.894
▁adult	-10.8941
查询	-10.8944
Before	-10.8949
MD	-10.8954
边缘	-10.8955
进行了研究	-10.8955
界面	-10.8963
有效地	-10.8964
▁crowd	-10.8965
接收	-10.8966
债务	-10.8967
同步	-10.897
▁fundamental	-10.8972
戒	-10.8977
轨道	-10.8978
衬	-10.8978
范围内	-10.898
始	-10.8982
采访	-10.8987
▁definition	-10.8987
▁vegetable	-10.8987
▁Wen	-10.8989
▁Phil	-10.899
文字	-10.8996
男子	-10.8997
scal	-10.8998
教练	-10.9001
▁composite	-10.9006
疏	-10.9007
服装	-10.9007
饮食	-10.901
▁magnetic	-10.9011
三维	-10.9019
劲	-10.9035
▁graduate	-10.9035
76	-10.9036
▁capture	-10.9037
▁sheet	-10.9038
阅	-10.9038
▁cable	-10.9039
emia	-10.9041
赤	-10.9042
关闭	-10.9049
▁defined	-10.905
猜	-10.905
▁criminal	-10.9052
改造	-10.9052
▁bull	-10.9054
总体	-10.9054
毕	-10.9058
统治	-10.906
▁technologies	-10.9061
竹	-10.9062
众多	-10.9065
▁Tuesday	-10.9066
研究表明	-10.9066
▁bacteria	-10.9068
回顾	-10.9075
埃及	-10.9077
berg	-10.908
均匀	-10.9083
图书馆	-10.9089
born	-10.9091
▁tank	-10.9091
▁parameter	-10.9092
▁boat	-10.9094
摸	-10.9095
西部	-10.9095
▁June	-10.9099
通知	-10.9099
▁rh	-10.9102
even	-10.9104
沉积	-10.9105
读者	-10.9106
仓	-10.9107
sorption	-10.911
群体	-10.9113
68	-10.9119
▁mineral	-10.9119
超声	-10.9121
圣诞	-10.9123
弥	-10.9126
奉	-10.9127
oxy	-10.9132
链接	-10.9133
外部	-10.9134
Uni	-10.9136
Meanwhile	-10.9137
10%	-10.9139
摄影	-10.914
▁doubt	-10.9148
▁extremely	-10.9151
▁Lake	-10.9151
Those	-10.9152
关联	-10.9152
Article	-10.9156
▁integration	-10.9157
▁reduction	-10.916
本发明	-10.9165
EL	-10.9168
寿命	-10.917
▁transformation	-10.917
ette	-10.9173
文献	-10.9178
▁guard	-10.918
▁reserve	-10.9181
滞	-10.9182
彼	-10.9182
▁responsibility	-10.9189
苗	-10.9191
▁acute	-10.9191
▁army	-10.9191
▁professor	-10.9194
练	-10.9198
匹配	-10.92
技	-10.92
▁crop	-10.9202
纪念	-10.9204
▁guest	-10.9204
▁Law	-10.9211
融合	-10.9213
勤	-10.9214
▁compare	-10.9217
流量	-10.9219
椎	-10.9221
公式	-10.9224
况	-10.9224
刚刚	-10.9226
▁achieved	-10.9227
lumin	-10.9227
rrh	-10.9228
我觉得	-10.9229
掌握	-10.923
▁favor	-10.9238
肤	-10.9238
▁March	-10.9238
病例	-10.9239
种植	-10.9242
▁context	-10.9243
老板	-10.9243
万美元	-10.925
穿着	-10.9255
之处	-10.9257
66	-10.9259
姿	-10.9263
▁comparison	-10.9271
绩	-10.9274
▁Indian	-10.9275
三种	-10.9276
经典	-10.9283
意识到	-10.9285
罕	-10.929
筹	-10.9291
▁saving	-10.9293
▁Street	-10.9302
▁broken	-10.9304
阻止	-10.9308
柜	-10.931
酵	-10.9312
▁Jiang	-10.9312
婚姻	-10.9315
▁reservoir	-10.9315
哭	-10.9316
▁attitude	-10.9318
▁measuring	-10.9323
▁Zhang	-10.9331
室内	-10.9334
Look	-10.9339
▁rising	-10.9339
▁election	-10.9339
蓄	-10.9343
商店	-10.9347
英尺	-10.9349
种类	-10.935
print	-10.9351
朱	-10.9351
1000	-10.9352
▁blog	-10.9355
▁faith	-10.9356
岗	-10.9358
amine	-10.9358
立即	-10.9359
▁Minister	-10.9361
昆	-10.9362
综述	-10.9364
▁precision	-10.9373
古代	-10.9376
排放	-10.9379
焊	-10.9383
▁variation	-10.9383
巴西	-10.9393
钠	-10.9399
车辆	-10.9399
system	-10.9402
咨询	-10.9402
信心	-10.9402
▁argument	-10.9408
护理	-10.9414
▁citizen	-10.9415
▁schedule	-10.9415
日益	-10.942
▁coffee	-10.942
▁profile	-10.942
▁silver	-10.9421
84	-10.9423
惑	-10.9424
DO	-10.9431
视觉	-10.9433
框	-10.9434
结婚	-10.9434
▁maximum	-10.9435
矩	-10.9438
▁nano	-10.944
酷	-10.9442
▁surgery	-10.9442
霉	-10.9444
▁poem	-10.9451
国内外	-10.9454
桩	-10.9455
view	-10.9459
琳	-10.9464
▁scholar	-10.9468
胖	-10.9471
爵	-10.9471
▁convenient	-10.9472
▁producing	-10.9472
小鼠	-10.9475
官方	-10.9479
plication	-10.9486
柴	-10.9487
澳	-10.9488
▁Science	-10.9488
奋	-10.9489
cycle	-10.9489
LD	-10.949
伊朗	-10.9495
▁framework	-10.9499
阿富汗	-10.9506
事物	-10.951
利润	-10.9524
管道	-10.9528
▁Russian	-10.953
▁providing	-10.9534
耀	-10.9538
▁freedom	-10.9539
运动员	-10.954
昨天	-10.9541
环保	-10.9549
▁Yi	-10.955
发言人	-10.9551
▁worry	-10.9555
禁止	-10.9556
Chapter	-10.956
▁manufacture	-10.956
议员	-10.9565
渗	-10.9568
▁gate	-10.9574
疫苗	-10.9574
▁thy	-10.9576
凉	-10.9582
▁forecast	-10.9587
▁dish	-10.9589
练习	-10.9592
辅助	-10.9599
忧	-10.9601
最低	-10.9601
▁define	-10.9606
帝	-10.9614
▁alcohol	-10.9619
统	-10.9619
哪里	-10.9621
▁plug	-10.9621
▁Service	-10.9623
论述了	-10.9624
1990	-10.9624
黄金	-10.9627
▁programme	-10.9632
▁solar	-10.9635
Will	-10.9639
▁successfully	-10.9639
▁transaction	-10.9641
伪	-10.9645
本质	-10.9646
▁vessel	-10.9649
▁drag	-10.9651
举办	-10.9652
垫	-10.9655
▁colour	-10.9657
宣传	-10.966
direct	-10.9665
情感	-10.9667
部署	-10.967
▁tradition	-10.9675
▁lesson	-10.9678
▁Corp	-10.9683
troph	-10.9683
▁translation	-10.9684
龄	-10.9685
糖尿病	-10.9686
▁coating	-10.9687
显得	-10.9688
▁climb	-10.9691
淀	-10.9693
MR	-10.9694
很容易	-10.9695
济	-10.9703
▁maintenance	-10.9708
文明	-10.9709
私人	-10.9714
期望	-10.9717
▁mice	-10.9718
配合	-10.9719
▁Ko	-10.9728
▁ocean	-10.9729
全世界	-10.9732
▁skill	-10.9733
▁giant	-10.9734
说话	-10.9735
▁quant	-10.9739
原始	-10.9739
▁phenomenon	-10.974
筒	-10.9744
怒	-10.9747
▁fee	-10.9748
▁stem	-10.975
营销	-10.9751
推进	-10.9754
▁sight	-10.9757
邮件	-10.9757
变换	-10.9763
裤	-10.9765
▁disaster	-10.977
透明	-10.9774
▁cheap	-10.9774
Data	-10.9778
▁California	-10.978
崇	-10.9785
赏	-10.9787
▁exactly	-10.9788
烷	-10.9792
Chinese	-10.9792
尸	-10.9795
▁boss	-10.9796
漂亮	-10.9802
▁alter	-10.9803
▁reasonable	-10.9805
效益	-10.9808
花费	-10.9808
描	-10.9809
▁southern	-10.981
▁prison	-10.9812
控制系统	-10.9814
▁broke	-10.9815
▁alloy	-10.9817
▁Asian	-10.9819
▁ticket	-10.9823
发动机	-10.9826
士兵	-10.9836
▁register	-10.9838
▁lake	-10.9839
嘉	-10.9841
▁bought	-10.9848
国王	-10.9856
思维	-10.986
▁strip	-10.9863
▁Company	-10.9875
58	-10.9877
过滤	-10.9878
损害	-10.9882
下载	-10.9886
引擎	-10.989
driven	-10.9892
ddle	-10.9894
动力学	-10.9899
▁argue	-10.9902
▁Korean	-10.9906
20%	-10.9907
▁chip	-10.9908
君	-10.991
▁Iraq	-10.9911
墨西哥	-10.9918
▁structural	-10.9918
发明	-10.9923
玉米	-10.9925
如果您	-10.9926
control	-10.9927
▁Christ	-10.9931
驾驶	-10.9938
easing	-10.9939
▁boil	-10.9952
拆	-10.9964
聘	-10.9964
兽	-10.9965
▁suddenly	-10.9968
▁analyst	-10.997
清晰	-10.997
▁contribute	-10.9971
▁panel	-10.9971
1999	-10.9974
▁manufacturer	-10.9976
坝	-10.9977
筋	-10.9977
选项	-10.9978
达成	-10.998
开关	-10.999
慢性	-10.999
财务	-10.9998
腾	-10.9999
申	-11
树脂	-11.0005
监控	-11.0008
牵	-11.0014
50%	-11.0015
▁session	-11.002
担任	-11.0022
▁January	-11.0026
盈	-11.0028
Such	-11.0034
─	-11.0035
Four	-11.0035
谷歌	-11.0036
太空	-11.0039
▁smart	-11.0039
space	-11.004
source	-11.0041
▁defend	-11.0041
▁agency	-11.0043
超级	-11.0051
Thus	-11.0054
答案	-11.0055
屏幕	-11.0055
幽	-11.0058
▁easier	-11.0058
博客	-11.006
复制	-11.0061
▁happiness	-11.0062
大规模	-11.0063
适用	-11.0066
沟	-11.007
歧	-11.0072
▁leaving	-11.0073
▁complain	-11.0074
绑	-11.0075
十二	-11.008
burg	-11.0081
▁aircraft	-11.0084
▁maybe	-11.0087
预算	-11.0088
▁transition	-11.0089
肌肉	-11.0096
▁luck	-11.0098
face	-11.0099
各国	-11.0099
重建	-11.01
Exp	-11.01
烦	-11.01
scription	-11.0105
出售	-11.0106
▁gear	-11.0108
▁default	-11.0109
静脉	-11.0112
总理	-11.0113
否则	-11.0118
路径	-11.0124
▁Lan	-11.0127
纱	-11.0128
▁philosophy	-11.013
打击	-11.0137
家族	-11.0146
邀请	-11.0146
▁stuff	-11.0154
海岸	-11.0155
时尚	-11.0157
▁housing	-11.0158
PV	-11.016
哦	-11.0164
▁decide	-11.017
取代	-11.017
撤	-11.0178
▁matrix	-11.0178
映	-11.0184
艾滋病	-11.0187
Open	-11.0188
铅	-11.0188
▁electrical	-11.0188
宇宙	-11.019
▁Jesus	-11.019
▁stories	-11.0193
jun	-11.0197
▁superior	-11.0197
▁conclude	-11.02
期待	-11.0201
报纸	-11.0202
表现出	-11.0203
芳	-11.0204
痕	-11.0204
▁introduce	-11.0205
nucle	-11.0205
暴力	-11.021
灵活	-11.0211
血清	-11.0218
提示	-11.0219
治理	-11.0222
▁complicated	-11.0226
▁vibration	-11.0226
1998	-11.0229
▁married	-11.0239
引导	-11.0239
役	-11.0245
▁requirement	-11.0247
内存	-11.0249
移民	-11.0251
▁neck	-11.0253
游客	-11.0254
▁Thursday	-11.0258
少数	-11.0258
posi	-11.026
区别	-11.0272
桶	-11.0273
▁analyzing	-11.0275
▁existence	-11.0285
认知	-11.0287
陪	-11.0289
▁dinner	-11.0298
承担	-11.0299
探测	-11.03
corp	-11.0303
▁atmosphere	-11.0304
被称为	-11.0305
▁yesterday	-11.031
▁audience	-11.031
巴基斯坦	-11.0311
▁chronic	-11.0313
▁occasion	-11.0318
贝尔	-11.0319
scribe	-11.0322
研发	-11.0327
犬	-11.0334
纠	-11.0338
▁rational	-11.0339
▁revolution	-11.0341
▁policies	-11.035
宇	-11.0357
叫做	-11.0363
赢	-11.0363
Have	-11.0365
▁advice	-11.0369
▁identified	-11.0369
锦	-11.0373
批准	-11.0376
挡	-11.0378
▁presence	-11.038
具备	-11.0381
这样做	-11.0381
扑	-11.0381
产物	-11.0383
▁modified	-11.0385
推荐	-11.0388
艺术家	-11.0391
威尔	-11.0392
▁absorb	-11.0395
▁Britain	-11.0399
▁candidate	-11.0401
约束	-11.0411
寸	-11.0414
至今	-11.0415
衍	-11.0417
▁bomb	-11.0419
▁payment	-11.0421
▁trace	-11.0425
▁parallel	-11.0427
▁folk	-11.0437
购物	-11.0437
激素	-11.0439
Note	-11.0441
▁struggle	-11.0443
漠	-11.045
吐	-11.045
nov	-11.0453
phone	-11.0456
财富	-11.0464
▁escape	-11.0466
▁hill	-11.0466
▁Wei	-11.0467
训	-11.0469
栓	-11.047
▁representative	-11.0471
牢	-11.0477
晓	-11.0478
深刻	-11.0486
房屋	-11.0489
▁tall	-11.049
▁except	-11.0494
▁segment	-11.0494
狼	-11.0496
▁pile	-11.0497
shaped	-11.0498
演讲	-11.0508
▁radiation	-11.051
Yet	-11.0514
屈	-11.0517
爸爸	-11.0519
▁worse	-11.052
▁logic	-11.0523
▁trading	-11.0526
灵魂	-11.053
mato	-11.053
▁electron	-11.0532
奔	-11.0534
▁minor	-11.0535
▁optimization	-11.0535
▁parties	-11.054
▁robot	-11.054
疾	-11.0544
证券	-11.0552
▁vertical	-11.0558
▁Paul	-11.056
运营	-11.0561
兔	-11.0562
畅	-11.0562
▁David	-11.0562
▁zero	-11.0564
▁oxygen	-11.0571
▁church	-11.0573
▁assets	-11.0574
信任	-11.0575
膀	-11.0582
▁recover	-11.0582
▁array	-11.0582
▁leaf	-11.0584
▁slip	-11.0584
▁budget	-11.0585
▁holiday	-11.0591
▁afternoon	-11.0593
cade	-11.0597
▁coefficient	-11.0598
礼物	-11.0602
投票	-11.0604
▁utility	-11.0605
▁lung	-11.0605
监督	-11.0605
脉冲	-11.0608
加速	-11.0608
▁observation	-11.0609
花园	-11.0614
砖	-11.0616
Water	-11.062
轻松	-11.0621
life	-11.0623
▁manner	-11.0623
公民	-11.0628
media	-11.0632
Take	-11.0636
镀	-11.0639
光谱	-11.0641
团体	-11.0641
▁aesthetic	-11.0641
噪声	-11.0649
▁Apple	-11.0654
▁eventually	-11.0656
▁football	-11.0656
布什	-11.066
▁reducing	-11.0661
睡眠	-11.0661
turn	-11.0663
三角	-11.0664
▁favorite	-11.0674
谈判	-11.0678
乃	-11.0679
▁slightly	-11.0681
▁tourist	-11.0686
▁instruction	-11.0687
信仰	-11.0689
chemical	-11.069
▁hurt	-11.0696
▁Health	-11.0697
矛盾	-11.0701
▁finance	-11.0701
奈	-11.0702
▁float	-11.0703
脆	-11.0706
返	-11.0708
▁nerve	-11.0714
垂	-11.0715
▁protest	-11.0718
岩石	-11.072
歇	-11.0722
搜	-11.0723
英文	-11.0725
竭	-11.0728
始终	-11.0733
▁organize	-11.0735
▁narrow	-11.0735
纪录	-11.074
祭	-11.0741
钉	-11.0742
▁simulate	-11.0743
反射	-11.0745
标签	-11.0747
▁expensive	-11.075
溃	-11.0752
▁thread	-11.0755
▁disorder	-11.0763
挥	-11.0772
课题	-11.0772
支撑	-11.0774
恐惧	-11.0775
肢	-11.0786
扮演	-11.0796
企	-11.0811
▁Island	-11.0812
▁honor	-11.0812
罩	-11.0814
▁membrane	-11.0817
场景	-11.0822
▁copper	-11.0829
▁numerical	-11.083
奴	-11.0832
box	-11.0833
蔬菜	-11.0834
Life	-11.0837
擦	-11.0837
泌	-11.0839
饲	-11.0845
受伤	-11.0848
绳	-11.0852
▁reliable	-11.0854
▁composed	-11.0858
▁Xiao	-11.0858
智慧	-11.086
工资	-11.0863
币	-11.0871
▁colon	-11.0871
蓝色	-11.0873
▁empty	-11.0874
▁sitting	-11.0875
▁gap	-11.0875
▁automatically	-11.088
▁Egypt	-11.0882
伍	-11.0888
▁wound	-11.0889
观测	-11.0894
▁hall	-11.0894
qi	-11.0898
▁joy	-11.0901
1.5	-11.0901
趋	-11.0907
旱	-11.0911
▁absolute	-11.0911
▁April	-11.0921
宋	-11.0922
▁relax	-11.0926
瓣	-11.0928
甚	-11.0929
踏	-11.0935
廉	-11.0937
▁meters	-11.0939
娱乐	-11.0945
蛇	-11.0952
▁competitive	-11.0952
▁emission	-11.0955
墓	-11.096
▁sulf	-11.096
▁northern	-11.0973
膨胀	-11.0978
▁affair	-11.0982
哪些	-11.0985
榜	-11.0986
▁familiar	-11.0986
窄	-11.0988
癌症	-11.0997
熟悉	-11.1001
纽	-11.1003
恨	-11.1008
祷	-11.1008
▁optimal	-11.1008
编程	-11.1009
闹	-11.1014
▁correlation	-11.1014
广播	-11.1014
夏天	-11.1017
▁secondary	-11.1019
有利于	-11.1021
单独	-11.1021
架构	-11.1035
烂	-11.1036
胚	-11.1038
▁conventional	-11.1042
涌	-11.1046
卧	-11.1046
▁teach	-11.1046
SQL	-11.1048
谨	-11.1049
▁extension	-11.1051
▁introduction	-11.1051
▁Christian	-11.1053
▁pray	-11.1056
多么	-11.107
▁transportation	-11.1078
劣	-11.1085
掩	-11.1089
教堂	-11.1091
聪明	-11.1095
▁operator	-11.1095
贾	-11.1098
导弹	-11.11
▁creative	-11.11
▁County	-11.111
▁contribution	-11.1121
▁desk	-11.1121
娃	-11.1123
▁steam	-11.1126
氟	-11.1127
▁distributed	-11.1127
零售	-11.1133
▁roof	-11.1137
▁ultimate	-11.114
▁stretch	-11.114
dependent	-11.1142
▁prepare	-11.1143
休息	-11.1143
▁chicken	-11.1147
援助	-11.1151
遵	-11.1151
册	-11.1151
兴奋	-11.1158
保罗	-11.116
芽	-11.1163
毫无	-11.1164
收购	-11.1165
悦	-11.1172
▁coach	-11.1173
提交	-11.1175
吊	-11.118
▁installation	-11.1182
通讯	-11.1185
争议	-11.1187
▁description	-11.1193
记住	-11.1197
700	-11.1198
▁facilities	-11.1199
印象	-11.1205
宠	-11.1212
络	-11.1217
警方	-11.1218
吨	-11.1218
▁uniform	-11.122
▁occurred	-11.1226
▁click	-11.1228
▁controller	-11.123
胞	-11.1233
亨	-11.1233
▁breast	-11.1233
奥运会	-11.1235
▁caught	-11.1237
博物馆	-11.1239
▁soldiers	-11.1239
郁	-11.1243
1997	-11.1243
▁leak	-11.1245
愉	-11.1256
▁carrier	-11.1259
▁pulse	-11.1262
冷却	-11.1263
印刷	-11.1265
锡	-11.1266
▁mining	-11.1267
御	-11.1275
餐厅	-11.1276
欧盟	-11.1278
▁stood	-11.1286
▁revenue	-11.1287
Among	-11.129
▁cotton	-11.1291
▁Council	-11.1294
庆祝	-11.1295
▁prevention	-11.1296
赚	-11.13
锌	-11.1302
▁derived	-11.1304
覆	-11.1305
▁mentioned	-11.1306
Business	-11.1309
▁passenger	-11.1322
干燥	-11.1324
▁publish	-11.1329
队伍	-11.133
▁email	-11.1332
周末	-11.1333
样品	-11.135
Instead	-11.135
▁assessment	-11.1351
黎	-11.1354
▁expansion	-11.1356
丘	-11.1358
▁dimension	-11.1359
▁September	-11.136
–	-11.1366
front	-11.1367
▁victim	-11.1368
▁reliability	-11.137
象征	-11.137
▁parent	-11.1373
▁magazine	-11.1374
舒适	-11.1381
采集	-11.1386
quality	-11.139
论述	-11.1391
▁afraid	-11.1395
▁boost	-11.1396
切除	-11.1396
▁quantity	-11.1398
卓	-11.1405
Learn	-11.1405
▁label	-11.1407
▁proportion	-11.1407
▁emergency	-11.1409
庞	-11.1411
制造商	-11.1413
▁eliminate	-11.1424
▁hung	-11.1429
Auto	-11.1432
泊	-11.1434
Though	-11.1434
扶	-11.1438
▁Wall	-11.144
▁stopped	-11.144
喊	-11.1448
▁accomplish	-11.1448
▁household	-11.1457
▁vast	-11.1458
▁secure	-11.1458
英格兰	-11.1459
葡萄酒	-11.1468
艇	-11.1469
对照组	-11.1472
▁agricultural	-11.1475
仪器	-11.1482
泛	-11.1486
取消	-11.1487
巢	-11.1487
扇	-11.1489
糟糕	-11.1489
▁August	-11.1489
优质	-11.1494
2012	-11.1494
欺	-11.1497
▁irre	-11.1497
▁assess	-11.1501
下跌	-11.1503
假如	-11.1504
致力于	-11.1508
尤其	-11.1512
▁breed	-11.1515
▁resolution	-11.1516
感兴趣	-11.1517
▁imagine	-11.152
▁velocity	-11.1522
抗议	-11.1534
钥	-11.1538
危	-11.1543
编写	-11.1545
漂	-11.1547
凸	-11.155
▁mutual	-11.156
▁corporate	-11.1564
伐	-11.1567
仙	-11.1569
阐述	-11.1572
回归	-11.1574
补偿	-11.1576
轧	-11.1577
▁despite	-11.1583
▁Xu	-11.1584
媒	-11.1584
代谢	-11.1587
优先	-11.1587
▁macro	-11.1593
▁biological	-11.1594
▁valuable	-11.1595
赔	-11.1599
▁extraction	-11.1601
膏	-11.1605
▁recognition	-11.1605
诱导	-11.161
▁satellite	-11.1611
看上去	-11.1613
wood	-11.1614
▁prime	-11.1615
Windows	-11.1617
监管	-11.1618
▁optimize	-11.1623
▁blind	-11.1633
▁dangerous	-11.1635
▁alternative	-11.1641
▁protocol	-11.1641
吞	-11.1647
强大的	-11.1649
腐蚀	-11.1655
▁College	-11.1661
微软	-11.1664
密码	-11.1667
▁weekend	-11.1669
黑暗	-11.167
▁tourism	-11.1671
慢慢	-11.1676
▁division	-11.1677
巡	-11.1685
▁extent	-11.1689
▁Pakistan	-11.1691
求解	-11.1694
诉讼	-11.1697
房地产	-11.1698
害怕	-11.1698
赌	-11.1709
彼此	-11.171
▁basket	-11.1711
案例	-11.1714
碍	-11.1715
饮料	-11.1717
▁Year	-11.1718
▁aspect	-11.1722
▁extensive	-11.1725
酚	-11.1729
▁Saturday	-11.1729
▁authorities	-11.1738
▁defense	-11.1742
Facebook	-11.1745
袭	-11.1752
飘	-11.1753
resistant	-11.1759
矩阵	-11.1762
break	-11.1766
▁estate	-11.1766
▁smell	-11.1787
▁substance	-11.1787
vascular	-11.1798
▁apparent	-11.1804
彻底	-11.1804
▁arrest	-11.1814
蜡	-11.1824
远程	-11.1828
▁capability	-11.1831
小孩	-11.1833
顾问	-11.1833
▁compete	-11.1834
必然	-11.1836
▁euro	-11.1844
GDP	-11.1856
堪	-11.1856
陶	-11.1866
取决于	-11.1873
▁ordinary	-11.1877
▁troops	-11.1879
cott	-11.1883
拳	-11.1883
▁artificial	-11.1883
丑	-11.1885
扩	-11.189
盲	-11.1891
涯	-11.1891
▁molecular	-11.1897
▁politics	-11.1897
▁rubber	-11.19
丛	-11.1903
渣	-11.1909
疼痛	-11.1916
住宅	-11.192
消耗	-11.1921
婆	-11.1922
▁evil	-11.1924
狭	-11.1926
▁intelligence	-11.1932
▁suspect	-11.1932
▁bigger	-11.1932
电子邮件	-11.1933
▁cement	-11.1935
ocyte	-11.1937
慎	-11.1942
▁Brazil	-11.1942
▁enemy	-11.1952
臭	-11.1954
渔	-11.1969
▁instant	-11.1971
▁carefully	-11.1976
赠	-11.1977
艘	-11.1979
玩具	-11.1998
英雄	-11.1999
参观	-11.2002
奇怪	-11.2002
conscious	-11.2004
介质	-11.2006
社交	-11.201
爆发	-11.201
▁bodies	-11.2016
妻	-11.202
防治	-11.202
▁assume	-11.2023
▁strategic	-11.2025
2.0	-11.2027
structure	-11.2027
符号	-11.203
sphere	-11.2031
▁combine	-11.2032
激励	-11.2037
陷入	-11.2044
财产	-11.2047
弧	-11.2047
密封	-11.2048
▁intensity	-11.2049
▁belief	-11.2052
▁thi	-11.2056
帝国	-11.2059
▁opportunities	-11.206
揭示	-11.2065
债券	-11.2066
踢	-11.2068
领先	-11.2071
减轻	-11.2074
贸	-11.2077
▁sick	-11.2078
匹	-11.2078
▁resin	-11.2078
址	-11.2082
chrom	-11.2084
拨	-11.2085
浏览	-11.2087
Government	-11.2091
叙	-11.2092
▁grew	-11.211
合适的	-11.2111
▁resolve	-11.2123
指挥	-11.2124
舱	-11.2124
▁syndrome	-11.2129
麻烦	-11.2129
friendly	-11.2132
峡	-11.2135
▁tunnel	-11.2137
斥	-11.2139
▁rescue	-11.2139
柯	-11.2143
▁disappear	-11.2143
▁tomorrow	-11.2145
▁Central	-11.2147
▁finite	-11.2147
景观	-11.2148
危害	-11.215
▁teeth	-11.2162
Professor	-11.2166
▁Congress	-11.2168
询	-11.2169
▁remind	-11.2171
透露	-11.2173
30%	-11.2175
巴黎	-11.2183
稿	-11.2183
▁equivalent	-11.2189
▁precise	-11.2194
▁wonderful	-11.2195
每个人都	-11.2199
代替	-11.2203
保健	-11.2204
仔	-11.2205
▁Technology	-11.2206
妆	-11.2208
崩	-11.2212
▁Christmas	-11.2215
▁magic	-11.2219
酰	-11.2219
▁League	-11.2219
氛	-11.2221
▁Association	-11.2221
叛	-11.2223
2.5	-11.2226
诗歌	-11.2226
▁conversation	-11.2232
回忆	-11.2234
瞬	-11.2236
▁nonlinear	-11.2236
▁transmit	-11.2238
慰	-11.224
▁basin	-11.2248
ographic	-11.2249
▁tiny	-11.2251
剥	-11.2253
涡	-11.2253
▁administrative	-11.2253
▁twice	-11.2253
删除	-11.2253
▁download	-11.2254
▁participate	-11.2257
▁chart	-11.2257
提醒	-11.226
▁resist	-11.2268
▁inspection	-11.2274
▁false	-11.2276
辅	-11.2277
乔治	-11.2282
焊接	-11.2282
Control	-11.2282
▁hunt	-11.2285
穴	-11.2291
青少年	-11.2293
?\""	-11.2294
膝	-11.2295
▁association	-11.2297
▁wedding	-11.2297
▁synthesis	-11.2306
啦	-11.231
忘记	-11.2314
汗	-11.2323
逐步	-11.2326
▁surrounding	-11.2327
▁systematic	-11.2331
遭受	-11.2333
▁plus	-11.2333
利物浦	-11.2336
ifies	-11.2336
绵	-11.2342
▁programming	-11.2344
▁Union	-11.2349
▁squa	-11.2363
悠	-11.2365
▁exception	-11.2367
scopic	-11.2368
▁rush	-11.2368
供应商	-11.2371
▁personnel	-11.2372
▁architect	-11.2381
酱	-11.2387
▁appeal	-11.2387
谢谢	-11.2393
扩散	-11.2396
quarter	-11.2402
Tech	-11.2405
▁audit	-11.2405
橡胶	-11.2407
鲍	-11.2408
喂	-11.2408
▁hybrid	-11.2408
披	-11.2411
硝	-11.2413
▁minimum	-11.2415
▁Canada	-11.2419
▁literary	-11.2426
▁survive	-11.2426
Moreover	-11.2426
孟	-11.2428
▁scope	-11.2428
沟通	-11.2429
玛丽	-11.2429
侣	-11.2439
认证	-11.2448
▁Middle	-11.2448
▁silk	-11.245
芯片	-11.2453
契	-11.2454
宪	-11.246
断裂	-11.2461
舌	-11.2475
郎	-11.2475
▁API	-11.2476
衰退	-11.2481
▁illustrate	-11.2482
灾难	-11.2483
催化剂	-11.2484
American	-11.2489
傲	-11.2495
▁dispute	-11.2496
遮	-11.2499
▁concentrate	-11.2506
▁gentle	-11.2506
▁Office	-11.251
初始	-11.251
的可能性	-11.2514
寺	-11.2519
被认为是	-11.2519
游泳	-11.2519
民主党	-11.252
夸	-11.2521
煮	-11.2523
▁vector	-11.2525
▁facing	-11.2527
function	-11.2528
called	-11.2529
廊	-11.2534
▁currency	-11.2534
笼	-11.2536
逼	-11.2536
▁flexible	-11.2536
▁shopping	-11.2538
▁entry	-11.2539
疲	-11.2542
螺旋	-11.2544
渗透	-11.2548
颇	-11.2549
John	-11.2552
▁proposal	-11.2556
话题	-11.2556
▁ecological	-11.2558
▁poetry	-11.256
▁slope	-11.2567
辣	-11.2575
▁Arab	-11.2579
▁LORD	-11.258
耦合	-11.258
爷	-11.2582
吓	-11.2586
spiration	-11.2597
渴望	-11.2598
Method	-11.2599
▁vaccine	-11.2606
▁margin	-11.2607
▁outcome	-11.2607
映射	-11.2607
自行车	-11.2608
speed	-11.2611
鹿	-11.2613
▁Bush	-11.2616
迭	-11.2619
▁theories	-11.262
dependence	-11.262
▁dropped	-11.2621
挺	-11.263
▁industries	-11.263
▁exploit	-11.263
Sometimes	-11.2635
▁crash	-11.264
Love	-11.264
～	-11.2643
缆	-11.2654
滋	-11.2657
▁drain	-11.2661
狮	-11.2663
prov	-11.267
溶液	-11.2676
▁heaven	-11.2677
吴	-11.2681
▁shadow	-11.2681
▁guess	-11.2688
诸如	-11.2695
耕	-11.2703
▁debate	-11.2712
▁strategies	-11.2714
紧急	-11.2717
敲	-11.2718
▁wheat	-11.2721
侦	-11.2727
采购	-11.273
▁depression	-11.2732
▁temple	-11.2733
胀	-11.2736
▁collapse	-11.2736
▁acquire	-11.2736
己	-11.2741
陶瓷	-11.2741
▁regime	-11.2757
铃	-11.2763
▁October	-11.2765
▁mirror	-11.2765
1996	-11.2772
▁native	-11.2773
卸	-11.2781
神秘	-11.2783
琼	-11.2785
吸附	-11.2789
锐	-11.279
▁thermo	-11.2793
▁routine	-11.2794
iPhone	-11.2803
所需的	-11.2811
交叉	-11.2813
▁flash	-11.2822
堵	-11.2823
衫	-11.2823
▁incident	-11.2823
▁separation	-11.2826
▁possibility	-11.2835
展现	-11.2836
贫困	-11.2836
芯	-11.2851
驶	-11.2852
歉	-11.2866
揭	-11.2885
咬	-11.29
挖	-11.2916
唤	-11.2916
卜	-11.2938
鸣	-11.2959
葬	-11.2961
弦	-11.297
扔	-11.2984
欠	-11.3002
栽	-11.3016
羽	-11.3018
诞	-11.3019
―	-11.3022
躺	-11.3055
雌	-11.3082
兑	-11.3085
裙	-11.3107
珊	-11.3114
魅	-11.3117
宴	-11.3128
渠	-11.3168
糊	-11.32
妥	-11.3209
噪	-11.3222
倡	-11.3226
滨	-11.3237
坎	-11.3261
呀	-11.327
郊	-11.3282
抬	-11.3308
枚	-11.3317
窃	-11.3317
署	-11.3329
昏	-11.3383
彻	-11.3404
栅	-11.3419
攀	-11.3431
殿	-11.3445
唇	-11.3452
颁	-11.3459
厉	-11.3462
愚	-11.3469
荧	-11.3474
捉	-11.3491
喻	-11.3491
叔	-11.3505
勘	-11.3517
祈	-11.3517
缸	-11.3531
览	-11.3576
黏	-11.3587
藻	-11.3597
韧	-11.3599
坑	-11.3611
阐	-11.3625
谊	-11.3631
疫	-11.3655
瘦	-11.3684
窝	-11.3684
恼	-11.3691
欣	-11.3733
隧	-11.3753
裔	-11.3768
鹅	-11.378
坛	-11.3782
猴	-11.3847
狱	-11.3876
府	-11.3881
怜	-11.3884
凌	-11.3896
抑	-11.3911
麽	-11.3916
劫	-11.3916
拌	-11.3929
惯	-11.3937
酬	-11.3939
阁	-11.3946
搅	-11.3951
惜	-11.3959
辈	-11.3982
饿	-11.4004
抚	-11.4014
碗	-11.4027
抹	-11.4027
棕	-11.4042
虑	-11.4046
佐	-11.4052
辑	-11.4054
秦	-11.406
椒	-11.4062
莲	-11.4065
缠	-11.4068
溢	-11.4075
挣	-11.4096
皆	-11.4106
履	-11.4108
巾	-11.4111
糕	-11.4113
尝	-11.4116
妈	-11.4129
叹	-11.4134
柳	-11.4136
措	-11.4141
悉	-11.4141
隶	-11.4149
寿	-11.4151
敦	-11.4151
赐	-11.4167
驾	-11.4169
逝	-11.417
谎	-11.4175
潘	-11.4177
详	-11.4184
梗	-11.4195
丸	-11.42
厦	-11.4206
轰	-11.4208
躲	-11.4216
眠	-11.4218
绒	-11.4224
皱	-11.4231
邪	-11.426
贺	-11.4265
滥	-11.4288
禽	-11.4327
锥	-11.4335
惩	-11.4377
裹	-11.4393
岭	-11.4398
肖	-11.4398
翅	-11.4403
旺	-11.4408
磅	-11.4414
苷	-11.4416
鹰	-11.4432
溪	-11.4432
惨	-11.4437
哀	-11.4451
肃	-11.4485
仇	-11.4488
括	-11.4495
缅	-11.4501
兆	-11.4501
匙	-11.4509
娘	-11.4618
庙	-11.4623
俩	-11.464
圳	-11.4661
凹	-11.4664
羞	-11.4664
浦	-11.4669
嫩	-11.4691
添	-11.472
甸	-11.4721
蔽	-11.4748
肽	-11.475
裸	-11.4759
枯	-11.4764
励	-11.479
脾	-11.4799
亏	-11.4813
厄	-11.4843
眉	-11.4843
贪	-11.4849
硕	-11.4871
茄	-11.4876
慕	-11.4884
猩	-11.4895
粮	-11.49
悄	-11.4929
嫌	-11.4931
喘	-11.4934
畜	-11.4954
醛	-11.4959
鸭	-11.5009
颜	-11.5018
钾	-11.5034
毯	-11.5043
罢	-11.5043
爽	-11.5054
萝	-11.5065
瓷	-11.5071
誓	-11.509
碑	-11.5104
棵	-11.5113
饥	-11.5119
酪	-11.5152
粹	-11.5152
蕴	-11.5152
虽	-11.5155
衷	-11.5167
霜	-11.5175
酿	-11.5178
伽	-11.5178
泳	-11.5188
晋	-11.5198
昨	-11.5228
挫	-11.5255
帅	-11.5266
喉	-11.5289
燕	-11.5312
儒	-11.5326
臣	-11.5344
乏	-11.5346
凤	-11.5376
徐	-11.5376
苍	-11.5381
焰	-11.5402
钩	-11.5407
唯	-11.5416
藉	-11.5425
拱	-11.5454
晕	-11.5466
悔	-11.5466
糟	-11.5483
塌	-11.5483
帆	-11.5492
朴	-11.5498
赵	-11.5504
吵	-11.5507
疆	-11.5518
桂	-11.553
颅	-11.5551
矢	-11.5562
晒	-11.5565
陵	-11.5571
劝	-11.558
佣	-11.5592
贮	-11.5619
蝶	-11.5628
央	-11.5652
矮	-11.5654
咽	-11.5708
裕	-11.5711
仲	-11.575
翁	-11.578
夕	-11.5792
忽	-11.5814
叉	-11.5824
孢	-11.5828
畸	-11.5856
郑	-11.5892
茎	-11.5895
仆	-11.5904
厘	-11.5913
傻	-11.5913
畏	-11.592
舶	-11.5932
挪	-11.5935
蠢	-11.5953
浙	-11.5969
艳	-11.5972
汀	-11.5987
葛	-11.5999
障	-11.6007
肚	-11.6018
颠	-11.6024
筑	-11.6031
烹	-11.6058
屑	-11.6067
弓	-11.6073
′	-11.6089
匆	-11.6111
仑	-11.6111
蕾	-11.6129
醋	-11.6129
刮	-11.6136
萃	-11.6136
莓	-11.6139
缴	-11.6148
洒	-11.6158
旦	-11.6171
柄	-11.6179
伞	-11.6198
痴	-11.6233
胰	-11.6236
仰	-11.6237
芒	-11.6239
浇	-11.6246
冈	-11.6252
摧	-11.6261
撰	-11.6261
忌	-11.6296
虾	-11.6312
坠	-11.6318
栖	-11.6347
凶	-11.6363
烃	-11.6379
靶	-11.6385
钛	-11.6389
姜	-11.6417
沈	-11.6433
镁	-11.644
溯	-11.6443
陌	-11.6443
梳	-11.6453
拯	-11.6456
讽	-11.6463
奢	-11.6488
寂	-11.6492
韵	-11.6514
遣	-11.6527
辱	-11.653
藤	-11.6534
锚	-11.6534
烘	-11.6537
皂	-11.6547
祥	-11.6547
颤	-11.6556
雀	-11.6596
褐	-11.6609
镑	-11.6609
昌	-11.6625
棋	-11.6628
厨	-11.6636
淘	-11.6717
薯	-11.6731
龟	-11.675
僵	-11.6754
懒	-11.6757
枢	-11.676
垒	-11.6764
嫁	-11.6764
募	-11.6774
掺	-11.6787
奠	-11.6824
蓬	-11.6824
颖	-11.6824
斤	-11.6834
鲸	-11.6854
秩	-11.6861
菊	-11.6874
慌	-11.6877
疹	-11.6908
勾	-11.6911
搏	-11.6914
炒	-11.6935
骄	-11.6938
涛	-11.6962
镍	-11.6962
郡	-11.6975
萧	-11.6989
逮	-11.7003
芭	-11.7006
溜	-11.702
榄	-11.7023
楚	-11.7029
沥	-11.705
扮	-11.7063
贩	-11.7067
卑	-11.7074
钓	-11.7098
骚	-11.716
闷	-11.7164
笨	-11.7164
虹	-11.7174
拘	-11.7178
憾	-11.7178
巫	-11.7188
芦	-11.7198
咱	-11.7205
奎	-11.7205
弊	-11.7219
祸	-11.7223
廷	-11.7244
霸	-11.7254
凋	-11.7275
徽	-11.7279
兄	-11.7282
#	-11.7282
扁	-11.7286
煌	-11.7296
芝	-11.7303
掘	-11.7324
唑	-11.7345
簧	-11.7356
塘	-11.7359
翔	-11.7377
辽	-11.7409
虐	-11.742
匠	-11.7423
抖	-11.7445
橄	-11.7455
诈	-11.7466
倦	-11.748
砍	-11.7484
撕	-11.7498
蚊	-11.7534
驳	-11.7537
喀	-11.7548
狄	-11.7552
纲	-11.7588
葱	-11.7595
狐	-11.762
橡	-11.7634
骂	-11.7653
辊	-11.766
廓	-11.7664
悟	-11.7679
冶	-11.7689
彭	-11.7726
籽	-11.773
糙	-11.7763
摔	-11.777
蛛	-11.7777
函	-11.7792
屠	-11.7799
橙	-11.781
嗯	-11.7811
陀	-11.7829
萎	-11.7833
巷	-11.7855
凑	-11.787
篷	-11.7877
蚁	-11.7877
惟	-11.7885
祂	-11.7888
拾	-11.7892
晃	-11.7911
锯	-11.7914
蔓	-11.7926
啸	-11.7952
沸	-11.7963
胱	-11.7978
舟	-11.7989
驰	-11.7997
棚	-11.8042
魏	-11.8061
敞	-11.8068
闸	-11.8103
嘲	-11.8106
摊	-11.8129
矫	-11.8129
擅	-11.8167
浩	-11.8167
豫	-11.8167
盯	-11.821
垄	-11.8213
铬	-11.8217
顽	-11.8244
`	-11.8264
珀	-11.8283
夷	-11.8291
杏	-11.8294
梭	-11.8322
坪	-11.8325
梨	-11.8333
咒	-11.8333
赴	-11.8341
俊	-11.8341
枕	-11.8388
杭	-11.8392
竖	-11.8392
寨	-11.8423
轿	-11.8443
挽	-11.8443
颌	-11.847
哮	-11.8474
栋	-11.8478
窦	-11.849
咳	-11.8549
畴	-11.8589
谅	-11.8589
寡	-11.8597
煎	-11.8605
妨	-11.8617
俯	-11.8637
娅	-11.8637
傅	-11.8641
泼	-11.8645
屿	-11.8657
柠	-11.8726
碟	-11.8726
努	-11.8736
灶	-11.8783
怨	-11.8799
曝	-11.8799
烛	-11.8799
妊	-11.8807
棍	-11.8827
羟	-11.8844
棘	-11.8852
囚	-11.8852
爪	-11.886
涅	-11.8881
邓	-11.8881
魂	-11.8946
淹	-11.8984
侯	-11.8988
掠	-11.9009
茂	-11.9063
赎	-11.9067
泻	-11.9076
瑜	-11.9084
镶	-11.9088
堤	-11.9105
檬	-11.9126
詹	-11.9134
磺	-11.9139
锤	-11.9147
拦	-11.9168
盼	-11.9198
迦	-11.9198
宰	-11.9223
茅	-11.9245
涤	-11.9262
穗	-11.9287
馏	-11.93
瘾	-11.9309
袖	-11.9338
哺	-11.9343
贤	-11.9352
婴	-11.9359
衔	-11.9378
豚	-11.9382
疼	-11.9385
豹	-11.9395
浑	-11.9416
缀	-11.9438
帖	-11.9443
绞	-11.9469
疟	-11.9499
坯	-11.9504
敛	-11.9517
渊	-11.9521
壶	-11.9525
椭	-11.9525
绣	-11.953
冗	-11.9534
耻	-11.9539
逸	-11.9556
沮	-11.9569
腕	-11.9574
帘	-11.96
乾	-11.9605
碘	-11.9622
拐	-11.9627
氰	-11.9636
娠	-11.9658
坊	-11.968
厕	-11.9684
嘛	-11.9711
鲨	-11.9725
拒	-11.9793
迅	-11.9814
辖	-11.9814
杉	-11.9823
谴	-11.9828
碧	-11.9841
窑	-11.9873
粪	-11.9923
耍	-11.9932
躁	-11.9937
峻	-11.9937
谦	-11.9937
俱	-11.9941
鸦	-11.9969
呵	-11.9992
醚	-12.0038
烫	-12.0038
锈	-12.0038
茫	-12.0056
匿	-12.0065
嗜	-12.0075
绸	-12.0079
辟	-12.0089
哲	-12.0165
谜	-12.0168
禅	-12.0182
昔	-12.0186
贬	-12.0196
绪	-12.0226
择	-12.0232
盾	-12.0243
惹	-12.0247
萌	-12.0257
伺	-12.0271
券	-12.0296
沼	-12.0304
郭	-12.0314
抄	-12.0328
噬	-12.0333
喇	-12.0347
杠	-12.0352
冥	-12.0361
颂	-12.0385
脖	-12.039
疡	-12.039
锰	-12.0414
噢	-12.0428
瞧	-12.0452
铭	-12.0462
逛	-12.0491
挨	-12.051
帧	-12.052
翠	-12.0529
樱	-12.0539
洽	-12.0554
咸	-12.0588
暑	-12.0588
盎	-12.0612
逢	-12.0631
蝇	-12.0641
蛙	-12.0641
庸	-12.0656
慨	-12.07
玄	-12.0735
腻	-12.0745
逗	-12.075
饪	-12.0809
刹	-12.0809
逾	-12.0809
冯	-12.0839
纬	-12.0849
亭	-12.0879
缔	-12.0884
姚	-12.0889
愤	-12.0899
躯	-12.0904
捞	-12.099
愁	-12.0995
怎	-12.1029
熏	-12.1061
黛	-12.1067
渴	-12.1076
狠	-12.1077
巩	-12.1087
督	-12.11
蟹	-12.1102
阈	-12.1108
肆	-12.1133
晴	-12.1164
睾	-12.1164
瘫	-12.1169
惧	-12.1185
鳞	-12.1195
扯	-12.12
肋	-12.1211
橘	-12.1216
菇	-12.1221
贼	-12.1237
骼	-12.1247
礁	-12.1252
鞭	-12.1252
沾	-12.1289
睹	-12.1289
吕	-12.1299
咪	-12.1304
蒜	-12.132
哨	-12.1383
妖	-12.1389
薇	-12.1431
笛	-12.1442
灿	-12.1452
疮	-12.1452
蜘	-12.1468
靴	-12.1484
蛮	-12.1516
驼	-12.1564
屁	-12.1575
堕	-12.1624
橱	-12.1624
僧	-12.1624
恭	-12.1624
挠	-12.1629
锻	-12.1634
碌	-12.1651
壤	-12.1671
苔	-12.1678
硼	-12.1689
濒	-12.1694
宅	-12.1697
渍	-12.1716
敷	-12.1727
匀	-12.1747
锂	-12.1765
溉	-12.1771
鸿	-12.1782
钦	-12.1787
闯	-12.182
踩	-12.1831
撑	-12.1835
@	-12.1837
陕	-12.1859
嚼	-12.187
烁	-12.1875
戚	-12.1886
捆	-12.1892
晤	-12.1897
泣	-12.1925
铀	-12.1948
蕉	-12.1953
侈	-12.1976
垢	-12.1981
稠	-12.1981
砸	-12.1992
蝴	-12.2004
癫	-12.2004
厢	-12.202
钝	-12.2026
袜	-12.2054
妒	-12.206
缚	-12.2071
哇	-12.2071
姑	-12.2099
窥	-12.2099
澡	-12.2099
鼎	-12.2116
愧	-12.2128
懈	-12.2156
蠕	-12.2156
耸	-12.2168
谍	-12.2179
侍	-12.2225
刃	-12.2231
贿	-12.2242
侠	-12.2271
澄	-12.2271
紊	-12.2277
剔	-12.2282
亩	-12.2288
趾	-12.2335
掷	-12.234
琐	-12.2352
恤	-12.2352
搁	-12.2369
捧	-12.2381
谣	-12.2381
簇	-12.2399
勺	-12.2404
驴	-12.2416
铵	-12.2422
汞	-12.2428
沌	-12.2457
瑚	-12.2475
墅	-12.2475
蚕	-12.251
徵	-12.2522
浊	-12.2546
谬	-12.2546
鸽	-12.2552
粥	-12.2569
棱	-12.2575
痒	-12.2605
械	-12.2659
崖	-12.2659
肘	-12.2659
崛	-12.2689
综	-12.2718
驯	-12.2749
馈	-12.2754
馨	-12.2755
栗	-12.2761
脓	-12.2761
旬	-12.2792
赁	-12.2798
尬	-12.2804
恳	-12.2828
尴	-12.2828
妄	-12.284
榴	-12.2859
毅	-12.2859
坟	-12.2877
砌	-12.2883
邀	-12.2888
旷	-12.2969
稽	-12.2994
姨	-12.3
汰	-12.3019
卿	-12.3019
颊	-12.3031
寓	-12.3036
阱	-12.305
魁	-12.3069
袍	-12.3081
淤	-12.3094
曹	-12.3094
胳	-12.3094
诠	-12.3113
瀑	-12.3125
玲	-12.3125
彰	-12.315
痫	-12.3163
饶	-12.3175
嗅	-12.3207
僚	-12.3239
咯	-12.3239
咐	-12.3251
孩	-12.327
勿	-12.329
瞄	-12.3309
循	-12.3319
慧	-12.3328
庇	-12.3334
卒	-12.3341
焚	-12.3341
斐	-12.3347
飓	-12.3354
嫉	-12.336
姬	-12.3379
湘	-12.3392
霞	-12.3405
玻	-12.3425
哑	-12.3431
桨	-12.3438
啶	-12.3464
陋	-12.349
鳄	-12.3522
栈	-12.3529
吾	-12.3535
趁	-12.3535
勉	-12.3535
贞	-12.3555
亥	-12.3555
痰	-12.3555
诵	-12.3561
铲	-12.3581
仗	-12.3581
熬	-12.3594
狸	-12.3601
昭	-12.364
陡	-12.3647
牲	-12.366
崭	-12.3674
钞	-12.37
踝	-12.3713
弈	-12.3714
膊	-12.372
嗽	-12.3727
勋	-12.374
盔	-12.374
娇	-12.3747
吩	-12.376
恕	-12.3774
á	-12.378
絮	-12.3794
岳	-12.3827
臀	-12.3834
辰	-12.3841
嘿	-12.3848
睁	-12.3854
怡	-12.3854
蒋	-12.3861
溅	-12.3861
荫	-12.3875
喧	-12.3875
呕	-12.3902
崔	-12.3922
汪	-12.3936
杖	-12.3977
蔗	-12.3983
遏	-12.3983
戊	-12.3997
蹄	-12.4011
蔡	-12.4018
褶	-12.4031
吡	-12.4031
簿	-12.4032
沐	-12.4052
甩	-12.4052
孝	-12.4107
馀	-12.4121
娶	-12.4163
迄	-12.417
釉	-12.4184
炫	-12.4191
秉	-12.4191
溴	-12.4212
兜	-12.4212
蚂	-12.4219
睐	-12.4233
纶	-12.4247
乞	-12.4247
贡	-12.4254
肴	-12.4275
卤	-12.4317
屡	-12.4339
淇	-12.4367
匪	-12.4381
慷	-12.4403
憎	-12.441
拙	-12.4438
垮	-12.4438
钳	-12.4453
逻	-12.446
爸	-12.446
弛	-12.446
捡	-12.4489
窟	-12.4503
畔	-12.451
凿	-12.451
顷	-12.4518
椰	-12.4546
拷	-12.4554
枣	-12.4561
啥	-12.4583
秃	-12.4605
虔	-12.4612
埔	-12.4648
芙	-12.4736
鹤	-12.4736
圭	-12.4751
蜗	-12.4773
挚	-12.4773
俘	-12.4788
鞍	-12.4825
娩	-12.484
媚	-12.4848
幢	-12.4855
凳	-12.4878
涩	-12.4878
诀	-12.4893
茜	-12.4893
牡	-12.49
骆	-12.4908
熙	-12.4908
腱	-12.4923
】	-12.493
吟	-12.4945
砾	-12.4945
翰	-12.4958
膳	-12.496
淮	-12.4983
焙	-12.5006
歪	-12.5006
惰	-12.5028
诫	-12.5028
膨	-12.5089
匈	-12.5105
朋	-12.5127
蝠	-12.5128
绎	-12.5135
傍	-12.5151
帜	-12.5166
鞘	-12.5212
钨	-12.5228
菱	-12.5236
诡	-12.5243
孵	-12.5251
盏	-12.5267
∶	-12.5282
馅	-12.5298
掀	-12.5306
梵	-12.5313
悼	-12.5329
è	-12.5337
胁	-12.5344
燥	-12.5374
撼	-12.54
熵	-12.5423
柬	-12.5431
潭	-12.5463
钼	-12.5471
飙	-12.5487
缕	-12.5495
骸	-12.5495
葵	-12.5495
婪	-12.5519
腓	-12.5519
睫	-12.5519
掏	-12.5527
灼	-12.5527
翘	-12.5527
髋	-12.5535
聋	-12.5535
觅	-12.5551
羡	-12.5607
朽	-12.5615
槟	-12.5615
铣	-12.5623
凰	-12.5623
柿	-12.5623
趟	-12.5623
炬	-12.5655
痘	-12.5671
聆	-12.568
琪	-12.5712
墩	-12.5728
瞻	-12.5736
绅	-12.5737
脐	-12.5745
捏	-12.5786
挛	-12.5794
熄	-12.5818
叭	-12.5851
痹	-12.5851
嗓	-12.586
酋	-12.5876
牠	-12.5893
冕	-12.5901
舆	-12.5901
妳	-12.5926
遂	-12.5942
寞	-12.5942
枫	-12.5967
砷	-12.5984
叮	-12.5992
铂	-12.6026
吼	-12.6026
荆	-12.606
腊	-12.6093
瞩	-12.6093
揉	-12.6127
髦	-12.6136
拇	-12.6136
辜	-12.6153
斋	-12.6161
殊	-12.62
榈	-12.6204
墟	-12.6204
妃	-12.6221
倘	-12.6229
硒	-12.6238
斧	-12.6247
暮	-12.6255
疤	-12.6272
­	-12.629
淆	-12.6333
婉	-12.6376
悯	-12.6376
惫	-12.6385
昧	-12.6455
褪	-12.6463
蒲	-12.6499
沛	-12.6516
辐	-12.6533
崎	-12.6543
扳	-12.6552
沦	-12.6605
蘑	-12.6631
榨	-12.6649
脲	-12.6649
灸	-12.6667
扼	-12.6694
佑	-12.6703
蝙	-12.6721
咀	-12.6721
捣	-12.6748
苛	-12.6757
跪	-12.6766
桔	-12.6766
毗	-12.6766
溺	-12.6775
疱	-12.6775
猿	-12.6793
瘀	-12.6793
揽	-12.6802
蹦	-12.6802
缪	-12.682
允	-12.6824
嘱	-12.683
仕	-12.6857
惕	-12.6866
鄙	-12.6866
峭	-12.6875
哄	-12.6884
撇	-12.6912
鄂	-12.6912
饵	-12.6958
菠	-12.6967
悖	-12.6967
剃	-12.6985
乒	-12.6995
诅	-12.7004
眩	-12.7013
侮	-12.7022
芥	-12.7032
瞎	-12.7041
嘘	-12.7088
舵	-12.7116
赦	-12.7116
ü	-12.7116
倚	-12.7144
窒	-12.7162
稚	-12.7181
抒	-12.721
淑	-12.7228
侏	-12.7238
湛	-12.7257
唾	-12.7266
腌	-12.7266
蹲	-12.7266
乓	-12.7285
咎	-12.7305
秆	-12.7305
嘎	-12.7333
筝	-12.7333
劈	-12.7343
|	-12.7343
渲	-12.7352
窍	-12.7352
梢	-12.7352
暇	-12.7352
瑕	-12.74
奸	-12.74
萍	-12.742
戳	-12.742
甫	-12.7429
腥	-12.7439
绍	-12.7448
嗨	-12.7449
卉	-12.7507
侨	-12.7517
嗪	-12.7526
轩	-12.7536
宵	-12.7536
钴	-12.7536
胫	-12.7585
○	-12.7595
徘	-12.7595
柑	-12.7605
喃	-12.7614
沪	-12.7624
乖	-12.7634
徊	-12.7674
篱	-12.7684
羔	-12.7694
焕	-12.7703
抨	-12.7723
昼	-12.7723
疵	-12.7723
楔	-12.7823
嗡	-12.7833
咕	-12.7874
犀	-12.7874
痉	-12.7874
雏	-12.7874
淬	-12.7914
痪	-12.7934
菩	-12.7945
骤	-12.7952
谭	-12.7965
瘟	-12.7975
瞒	-12.7975
羧	-12.8026
肇	-12.8026
拭	-12.8047
粤	-12.8098
绷	-12.8098
徙	-12.8098
狩	-12.8098
肮	-12.8109
棺	-12.8129
弘	-12.814
彬	-12.814
姊	-12.815
嚣	-12.8171
蜥	-12.8192
删	-12.8222
镉	-12.8233
殷	-12.8244
亟	-12.8254
鹏	-12.8275
茱	-12.8286
斩	-12.8296
}	-12.8314
鹦	-12.8349
眶	-12.8349
鳍	-12.837
陨	-12.8381
茸	-12.8381
嬉	-12.8402
尉	-12.8402
哼	-12.8413
哎	-12.8445
箔	-12.8456
洼	-12.8488
睑	-12.8542
铰	-12.8585
〉	-12.8585
岂	-12.8596
笋	-12.8606
僻	-12.8607
罹	-12.8628
宛	-12.8628
窘	-12.8628
湍	-12.8639
瞪	-12.8639
茵	-12.865
禾	-12.865
沧	-12.8661
拢	-12.8661
碾	-12.8672
蔑	-12.8672
怠	-12.8716
犁	-12.8749
舅	-12.8749
啮	-12.876
怯	-12.8782
凄	-12.8793
靡	-12.8804
矛	-12.8815
幔	-12.8815
荟	-12.8837
疚	-12.8837
赂	-12.8837
刨	-12.886
嚷	-12.8893
吱	-12.8893
窜	-12.8915
翩	-12.8927
绽	-12.8927
皿	-12.8938
寥	-12.8938
【	-12.8949
聪	-12.8958
秤	-12.896
狡	-12.8994
磋	-12.9005
乍	-12.9017
鹉	-12.9028
膛	-12.9039
渺	-12.9051
垦	-12.9085
叨	-12.9108
澈	-12.9154
彗	-12.9154
咙	-12.9176
炖	-12.9188
魄	-12.92
眨	-12.9211
喔	-12.9234
澜	-12.9257
绰	-12.9257
啡	-12.9269
俭	-12.9269
毙	-12.9269
啉	-12.9292
瘘	-12.9327
拣	-12.9339
捍	-12.9351
萤	-12.9351
屉	-12.9409
煽	-12.9421
噩	-12.9433
í	-12.9433
孜	-12.9456
绚	-12.9456
‧	-12.9468
瞥	-12.9492
蓉	-12.9528
厥	-12.9528
淫	-12.954
豁	-12.954
蛾	-12.9551
桐	-12.9587
颞	-12.9611
芹	-12.9623
毋	-12.9623
汶	-12.9647
咏	-12.9659
贱	-12.9684
酥	-12.9696
祛	-12.9708
龈	-12.9732
饺	-12.9757
悍	-12.9757
哗	-12.9757
绊	-12.9793
莹	-12.9793
耦	-12.9801
旳	-12.9842
腈	-12.9855
岔	-12.9879
锭	-12.9941
譬	-12.9954
拽	-12.9978
黯	-13.0016
瞰	-13.0028
ö	-13.0041
薛	-13.0053
螨	-13.0053
滕	-13.0066
酐	-13.0066
・	-13.0079
蒿	-13.0091
谤	-13.0091
窖	-13.0104
秸	-13.0104
£	-13.0104
葫	-13.0129
呜	-13.0129
冤	-13.0142
佬	-13.0154
屯	-13.0167
拂	-13.0167
轭	-13.018
雁	-13.018
嘶	-13.0205
兮	-13.0205
淌	-13.0205
殴	-13.0218
侄	-13.0256
腋	-13.0256
丈	-13.0268
亵	-13.0269
骇	-13.0308
莞	-13.0346
瞭	-13.0346
忆	-13.0368
酗	-13.0372
茧	-13.0372
蝎	-13.0385
巅	-13.0385
丫	-13.0398
幂	-13.0463
竿	-13.0463
沫	-13.0489
→	-13.049
坍	-13.0529
秽	-13.0582
朔	-13.0582
氦	-13.0622
践	-13.0644
癖	-13.0648
曳	-13.0662
曰	-13.0662
葡	-13.0675
呐	-13.0688
毡	-13.0688
冉	-13.0715
祀	-13.0715
嘟	-13.0742
闽	-13.0755
炽	-13.0755
囱	-13.0755
腮	-13.0755
筷	-13.0769
睿	-13.0782
朦	-13.0782
睦	-13.0796
鸥	-13.0796
彦	-13.0796
冀	-13.0809
桁	-13.0809
汲	-13.0809
稼	-13.0823
亢	-13.085
糜	-13.085
堰	-13.085
辙	-13.0864
琥	-13.0877
寝	-13.0891
垩	-13.0918
咆	-13.0932
穹	-13.0946
滔	-13.096
缉	-13.0987
袁	-13.0987
禄	-13.1028
渎	-13.1042
斌	-13.1056
拧	-13.107
匮	-13.1084
虱	-13.1084
â	-13.1126
莽	-13.1154
宙	-13.1182
眷	-13.121
钮	-13.1252
耽	-13.1252
胧	-13.1267
蔚	-13.1267
靖	-13.1281
蜀	-13.1281
忱	-13.1281
柚	-13.1295
谚	-13.1323
渤	-13.1352
嘻	-13.1352
羚	-13.1395
卦	-13.1482
喋	-13.1482
汹	-13.1482
薰	-13.1496
鑫	-13.1496
佔	-13.1511
锆	-13.1511
苑	-13.154
渝	-13.1554
衅	-13.1554
咖	-13.1569
汐	-13.1569
跋	-13.1569
苇	-13.1583
琢	-13.1627
躬	-13.1672
〈	-13.1672
旭	-13.1672
憩	-13.1701
吝	-13.1701
臼	-13.1716
瘢	-13.1716
哩	-13.1716
嘧	-13.1731
惶	-13.1731
芜	-13.1746
懦	-13.1761
暨	-13.1761
讳	-13.1761
晾	-13.1775
珥	-13.1775
疝	-13.1775
缎	-13.1775
帷	-13.179
萘	-13.179
楠	-13.1805
俏	-13.182
滇	-13.1835
烙	-13.185
檐	-13.185
蜒	-13.185
痊	-13.188
喹	-13.1895
熨	-13.1895
甾	-13.1895
羁	-13.1911
抉	-13.1941
搓	-13.1971
炙	-13.1971
蜿	-13.2017
β	-13.2032
捻	-13.2048
槛	-13.2063
矽	-13.2063
噻	-13.2109
耿	-13.2109
砰	-13.2109
虏	-13.2109
蜴	-13.2125
甙	-13.214
橇	-13.2155
钡	-13.2155
镖	-13.2155
邑	-13.2171
筏	-13.2218
钒	-13.2233
纫	-13.2264
氓	-13.228
桅	-13.2312
糠	-13.2327
涝	-13.2327
跤	-13.2327
坤	-13.2327
迴	-13.2343
诽	-13.2359
腭	-13.2391
爹	-13.2391
舔	-13.2391
呤	-13.2406
悚	-13.2422
俺	-13.2422
芋	-13.2486
邱	-13.2486
呃	-13.2486
芪	-13.2502
辫	-13.2502
蔬	-13.2582
{	-13.2584
坞	-13.3046
吁	-13.4739
荐	-13.4962
睛	-13.5466
蹈	-13.5752
晰	-13.6066
娱	-13.6488
瑰	-13.6633
姻	-13.7492
璃	-13.864
讼	-14.0033
恢	-14.0417
擎	-14.1076
咨	-14.1153
玫	-14.1423
矶	-14.1542
苹	-14.4358
啤	-14.5268
怖	-14.6917
浏	-14.9277
讶	-15.1583
萄	-15.6513
础	-15.8038
垃	-16.0882
圾	-16.3713
肪	-16.4083
稣	-16.5719
\	-16.7087
́	-17.0826
牺	-17.0826
